{
  "version": "1.0",
  "truncation": null,
  "padding": null,
  "added_tokens": [
    {
      "id": 0,
      "content": "<pad>",
      "single_word": false,
      "lstrip": false,
      "rstrip": false,
      "normalized": false,
      "special": true
    },
    {
      "id": 1,
      "content": "<unk>",
      "single_word": false,
      "lstrip": false,
      "rstrip": false,
      "normalized": false,
      "special": true
    },
    {
      "id": 2,
      "content": "<s>",
      "single_word": false,
      "lstrip": false,
      "rstrip": false,
      "normalized": false,
      "special": true
    },
    {
      "id": 3,
      "content": "</s>",
      "single_word": false,
      "lstrip": false,
      "rstrip": false,
      "normalized": false,
      "special": true
    },
    {
      "id": 4,
      "content": "<mask>",
      "single_word": false,
      "lstrip": false,
      "rstrip": false,
      "normalized": false,
      "special": true
    },
    {
      "id": 5,
      "content": "<|im_start|>",
      "single_word": false,
      "lstrip": false,
      "rstrip": false,
      "normalized": false,
      "special": true
    },
    {
      "id": 6,
      "content": "<|im_end|>",
      "single_word": false,
      "lstrip": false,
      "rstrip": false,
      "normalized": false,
      "special": true
    }
  ],
  "normalizer": {
    "type": "Sequence",
    "normalizers": [
      {
        "type": "NFKC"
      },
      {
        "type": "Lowercase"
      }
    ]
  },
  "pre_tokenizer": {
    "type": "Sequence",
    "pretokenizers": [
      {
        "type": "Split",
        "pattern": {
          "String": "\\w+|[^\\w\\s]+"
        },
        "behavior": "Isolated",
        "invert": false
      },
      {
        "type": "ByteLevel",
        "add_prefix_space": false,
        "trim_offsets": true,
        "use_regex": true
      }
    ]
  },
  "post_processor": {
    "type": "ByteLevel",
    "add_prefix_space": true,
    "trim_offsets": true,
    "use_regex": true
  },
  "decoder": {
    "type": "ByteLevel",
    "add_prefix_space": true,
    "trim_offsets": true,
    "use_regex": true
  },
  "model": {
    "type": "Unigram",
    "unk_id": 1,
    "vocab": [
      [
        "<pad>",
        0.0
      ],
      [
        "<unk>",
        0.0
      ],
      [
        "<s>",
        0.0
      ],
      [
        "</s>",
        0.0
      ],
      [
        "<mask>",
        0.0
      ],
      [
        "<|im_start|>",
        0.0
      ],
      [
        "<|im_end|>",
        0.0
      ],
      [
        "Ġ",
        -2.0940973625593884
      ],
      [
        "\"",
        -3.163238313161841
      ],
      [
        ",",
        -3.394552691599653
      ],
      [
        "Ġthe",
        -3.550617798953617
      ],
      [
        "s",
        -3.582788381701313
      ],
      [
        ".",
        -3.630060329260054
      ],
      [
        "n",
        -3.6410367174956377
      ],
      [
        "a",
        -3.845202531493363
      ],
      [
        ":",
        -3.877953662190365
      ],
      [
        "Ġand",
        -3.904678400933928
      ],
      [
        "\\",
        -4.009931134354851
      ],
      [
        "Ġto",
        -4.185822300881899
      ],
      [
        "Ġof",
        -4.352682071081439
      ],
      [
        "i",
        -4.597250997284563
      ],
      [
        "t",
        -4.777174657740892
      ],
      [
        "Ġin",
        -4.78335057314923
      ],
      [
        "d",
        -4.817432044281267
      ],
      [
        "-",
        -4.882210024752128
      ],
      [
        "o",
        -4.9164981165767845
      ],
      [
        "'",
        -4.941923523595792
      ],
      [
        ".\\",
        -5.0505263929965665
      ],
      [
        "Ġfor",
        -5.158552045422724
      ],
      [
        "content",
        -5.201622381406253
      ],
      [
        "{",
        -5.215711682416373
      ],
      [
        "role",
        -5.221308199146005
      ],
      [
        "Ġthat",
        -5.238052559956126
      ],
      [
        "e",
        -5.264354657643246
      ],
      [
        "Ġis",
        -5.292499529824216
      ],
      [
        "Ġyou",
        -5.306132119090785
      ],
      [
        "u",
        -5.356334719128794
      ],
      [
        "ing",
        -5.381824594438022
      ],
      [
        "Ġwith",
        -5.396005621856569
      ],
      [
        "Ġcan",
        -5.62819827865836
      ],
      [
        "Ġor",
        -5.815405157989183
      ],
      [
        "user",
        -5.82980103464125
      ],
      [
        "ly",
        -5.8399133211871455
      ],
      [
        "Ġyour",
        -5.858375486072321
      ],
      [
        "Ġare",
        -5.860809152964549
      ],
      [
        "messages",
        -5.941119547585771
      ],
      [
        "assistant",
        -5.945875072601568
      ],
      [
        "Ġ[{",
        -5.95684952242156
      ],
      [
        "Ċ",
        -5.956924040640732
      ],
      [
        "\"}]}",
        -5.9569391112378085
      ],
      [
        "Ġthis",
        -5.9803755005684405
      ],
      [
        "f",
        -6.000182278575204
      ],
      [
        "Ġtheir",
        -6.05148885958001
      ],
      [
        "Ġbe",
        -6.083843547632167
      ],
      [
        "y",
        -6.117283693228089
      ],
      [
        "Ġwas",
        -6.132166944556749
      ],
      [
        "Ġhave",
        -6.138498683434584
      ],
      [
        "1",
        -6.142621981162989
      ],
      [
        "c",
        -6.170847941334989
      ],
      [
        "Ġmore",
        -6.231143744551753
      ],
      [
        "2",
        -6.253484851098811
      ],
      [
        "0",
        -6.25522165332568
      ],
      [
        "Ġby",
        -6.307503107050865
      ],
      [
        "(",
        -6.338399505080357
      ],
      [
        "r",
        -6.346228784712146
      ],
      [
        "Ġthey",
        -6.349231785059899
      ],
      [
        "Ġfrom",
        -6.358260490130576
      ],
      [
        "Ġan",
        -6.399803350090403
      ],
      [
        "Ġher",
        -6.45657305707209
      ],
      [
        "Ġuse",
        -6.471448003124742
      ],
      [
        "b",
        -6.517381541010868
      ],
      [
        "Ġhas",
        -6.525069337672097
      ],
      [
        "\"},",
        -6.569037922425759
      ],
      [
        "m",
        -6.597684291087322
      ],
      [
        "3",
        -6.60928623016768
      ],
      [
        "Ġsome",
        -6.639539921796656
      ],
      [
        "Ġme",
        -6.654960200421041
      ],
      [
        "Ġshe",
        -6.7050528728181895
      ],
      [
        "Ġhelp",
        -6.706561300796647
      ],
      [
        "4",
        -6.715871517167006
      ],
      [
        "Ġalso",
        -6.723374477548283
      ],
      [
        "Ġhow",
        -6.733427571585306
      ],
      [
        "=",
        -6.74704895155115
      ],
      [
        "Ġany",
        -6.78561282872734
      ],
      [
        "Ġabout",
        -6.7896916341761475
      ],
      [
        "x",
        -6.803592331449773
      ],
      [
        "Ġsentence",
        -6.808177204844572
      ],
      [
        "Ġhad",
        -6.811712400658994
      ],
      [
        "Ġnot",
        -6.8156664813484245
      ],
      [
        "?\"}",
        -6.826557842935511
      ],
      [
        "Ġwill",
        -6.827750136698583
      ],
      [
        "l",
        -6.840540515323289
      ],
      [
        "Ġbut",
        -6.851659213893372
      ],
      [
        "Ġwe",
        -6.853493095754221
      ],
      [
        "!",
        -6.871210089609892
      ],
      [
        "5",
        -6.884299291895012
      ],
      [
        "Ġsuch",
        -6.92598155697288
      ],
      [
        "Ġneed",
        -6.937563117351118
      ],
      [
        "Ġhe",
        -6.938225117456229
      ],
      [
        "Ġprovide",
        -6.939357815596537
      ],
      [
        "Ġother",
        -6.953137106390249
      ],
      [
        "Ġwhich",
        -6.966278351655387
      ],
      [
        ")",
        -6.995179826586551
      ],
      [
        "Ġhis",
        -7.023602310746238
      ],
      [
        "Ġthese",
        -7.025215248166884
      ],
      [
        "Ġthem",
        -7.02833283970647
      ],
      [
        "Ġ\\\"",
        -7.046197209086666
      ],
      [
        "Ġtime",
        -7.081091205485999
      ],
      [
        "Ġknow",
        -7.081599242487785
      ],
      [
        "Ġmake",
        -7.091031570339792
      ],
      [
        "Ġlike",
        -7.09517731928854
      ],
      [
        "Ġnew",
        -7.0980146799494435
      ],
      [
        "Ġwho",
        -7.117957849934347
      ],
      [
        "âĢĻ",
        -7.119480218362359
      ],
      [
        "Ġshort",
        -7.121109786351793
      ],
      [
        "Ġmy",
        -7.133097616672639
      ],
      [
        "Ġlet",
        -7.151700732738851
      ],
      [
        "h",
        -7.159132050904141
      ],
      [
        "Ġanswer",
        -7.162379889672932
      ],
      [
        "the",
        -7.1700578908763255
      ],
      [
        "Ġone",
        -7.1730937158677435
      ],
      [
        "Ġall",
        -7.179341645728908
      ],
      [
        "Ġinto",
        -7.182987709458608
      ],
      [
        "our",
        -7.184760270508271
      ],
      [
        "?",
        -7.187189785105755
      ],
      [
        "Ġword",
        -7.193950817126067
      ],
      [
        "Ġits",
        -7.194820486969935
      ],
      [
        "Ġcould",
        -7.195647904315408
      ],
      [
        "Ġup",
        -7.218471281215372
      ],
      [
        "Ġwere",
        -7.227579440886517
      ],
      [
        "Ġthrough",
        -7.238571545836054
      ],
      [
        "Ġwhat",
        -7.241638229784144
      ],
      [
        "p",
        -7.261949558602261
      ],
      [
        "Ġthere",
        -7.280710481228128
      ],
      [
        "means",
        -7.294256096052209
      ],
      [
        "Ġadd",
        -7.294650877432121
      ],
      [
        "Ġexample",
        -7.306815773908376
      ],
      [
        "nthe",
        -7.341125256077792
      ],
      [
        "/",
        -7.349120590256515
      ],
      [
        "Ġout",
        -7.370195639967195
      ],
      [
        "Ġkeep",
        -7.3737833725980835
      ],
      [
        "Ġbeen",
        -7.380293210559222
      ],
      [
        "w",
        -7.396941971146838
      ],
      [
        "Ġhere",
        -7.397267963427346
      ],
      [
        "Ġjust",
        -7.398606395309786
      ],
      [
        "Ġcreate",
        -7.401884088060072
      ],
      [
        "Ġwould",
        -7.413520950940542
      ],
      [
        "Ġinclude",
        -7.420581522381683
      ],
      [
        "Ġwhen",
        -7.432780142109804
      ],
      [
        "Ġwork",
        -7.454000872633122
      ],
      [
        "ll",
        -7.468002798264264
      ],
      [
        "7",
        -7.479120695463635
      ],
      [
        "g",
        -7.485711784396722
      ],
      [
        "Ġquestions",
        -7.490734191022122
      ],
      [
        "Ġeach",
        -7.497654165919794
      ],
      [
        "Ġused",
        -7.497680166229175
      ],
      [
        "Ġusing",
        -7.498266688387725
      ],
      [
        "Ġover",
        -7.503973041614055
      ],
      [
        "Ġexperience",
        -7.506790266547892
      ],
      [
        "6",
        -7.507134931939122
      ],
      [
        "Ġsocial",
        -7.519623852731581
      ],
      [
        "Ġinformation",
        -7.519628850800263
      ],
      [
        "Ġshould",
        -7.520000703914251
      ],
      [
        "Ġdifferent",
        -7.525862208513727
      ],
      [
        "Ġmay",
        -7.538971273680945
      ],
      [
        "Ġown",
        -7.574467696110494
      ],
      [
        "can",
        -7.588588381563643
      ],
      [
        "Ġwell",
        -7.611834588246412
      ],
      [
        "Ġway",
        -7.628853554079662
      ],
      [
        "Ġworld",
        -7.630281476371353
      ],
      [
        "Ġpeople",
        -7.634283149219357
      ],
      [
        "Ġimpact",
        -7.645139551353115
      ],
      [
        "ies",
        -7.649391499578091
      ],
      [
        "Ġlife",
        -7.659049543986935
      ],
      [
        "8",
        -7.660627678620504
      ],
      [
        "Ġmany",
        -7.664729106391993
      ],
      [
        "Ġcorrect",
        -7.688112520162946
      ],
      [
        "Ġwhile",
        -7.688303487925078
      ],
      [
        "including",
        -7.689690136969613
      ],
      [
        "Ġtry",
        -7.692510028051004
      ],
      [
        "Ġenergy",
        -7.701471138174709
      ],
      [
        "Ġpractice",
        -7.73400852038907
      ],
      [
        "Ġspecific",
        -7.73639239039249
      ],
      [
        "[",
        -7.746430178455364
      ],
      [
        "Ġdata",
        -7.751829578370895
      ],
      [
        "Ġgreat",
        -7.763805764492082
      ],
      [
        "_",
        -7.766560767627226
      ],
      [
        "Ġfood",
        -7.767901197518137
      ],
      [
        "`",
        -7.773526443666386
      ],
      [
        "Ġsupport",
        -7.79319994600181
      ],
      [
        "Ġhealth",
        -7.79384692236159
      ],
      [
        "Ġbeing",
        -7.809194666195358
      ],
      [
        "Ġprogram",
        -7.810499473560096
      ],
      [
        "Ġfind",
        -7.819604482310485
      ],
      [
        "9",
        -7.824014757933492
      ],
      [
        "Ġwhere",
        -7.824106144548757
      ],
      [
        "Ġwater",
        -7.82427149874491
      ],
      [
        "09",
        -7.825911118393547
      ],
      [
        "Ġtake",
        -7.829763740856771
      ],
      [
        "Ġmedia",
        -7.837055211440528
      ],
      [
        "Ġmost",
        -7.840342082815665
      ],
      [
        "+",
        -7.844337681913528
      ],
      [
        "Ġpractic",
        -7.858648195066664
      ],
      [
        "Ġwriting",
        -7.86033821828903
      ],
      [
        "Ġsystem",
        -7.863537414889171
      ],
      [
        "Ġmade",
        -7.86673276691546
      ],
      [
        "based",
        -7.870661095181875
      ],
      [
        "Ġmaster",
        -7.872310071391086
      ],
      [
        "k",
        -7.876155587127558
      ],
      [
        "v",
        -7.889234922326754
      ],
      [
        "Ġexamples",
        -7.893579091198584
      ],
      [
        "Ġcommon",
        -7.894763451858477
      ],
      [
        "Ġhigh",
        -7.913803799483416
      ],
      [
        "correct",
        -7.91739301100114
      ],
      [
        "Ġduring",
        -7.92744941225788
      ],
      [
        "Ġday",
        -7.929850626504207
      ],
      [
        "define",
        -7.94154714375536
      ],
      [
        "Ġthan",
        -7.965313255544343
      ],
      [
        "Ġbefore",
        -7.967037732724753
      ],
      [
        "here",
        -7.9690592349826606
      ],
      [
        "Ġfirst",
        -7.975137698132066
      ],
      [
        "Ġsignificant",
        -7.976248062074605
      ],
      [
        "Ġimportant",
        -7.991574196701807
      ],
      [
        "this",
        -7.996860265470257
      ],
      [
        "Ġfew",
        -8.001678895795166
      ],
      [
        "Ġensure",
        -8.01835236196627
      ],
      [
        "Ġeven",
        -8.020006842981148
      ],
      [
        "Ġask",
        -8.024975603925824
      ],
      [
        "Ġimprove",
        -8.027755635808148
      ],
      [
        "Ġnow",
        -8.028930753512832
      ],
      [
        "Ġoffer",
        -8.040872953277143
      ],
      [
        "Ġversion",
        -8.046026589080332
      ],
      [
        "Ġquality",
        -8.047223763897835
      ],
      [
        "Ġerror",
        -8.052454470804477
      ],
      [
        "Ġaround",
        -8.059239551889712
      ],
      [
        "however",
        -8.068620964214336
      ],
      [
        "Ġremember",
        -8.080012222016622
      ],
      [
        "Ġsee",
        -8.081062935190062
      ],
      [
        "nin",
        -8.082065288834903
      ],
      [
        "Ġbetween",
        -8.088276744094081
      ],
      [
        "sure",
        -8.097126191414619
      ],
      [
        "Ġget",
        -8.107773797653016
      ],
      [
        "able",
        -8.110615722549959
      ],
      [
        "Ġmarketing",
        -8.11267329157741
      ],
      [
        "$",
        -8.115222826841501
      ],
      [
        "Ġreduce",
        -8.117975200874643
      ],
      [
        "Ġtechnology",
        -8.122642050866684
      ],
      [
        "Ġstate",
        -8.124700602571284
      ],
      [
        "Ġteam",
        -8.126800193991564
      ],
      [
        "Ġdevelopment",
        -8.12815203930621
      ],
      [
        "Ġlove",
        -8.13017383352886
      ],
      [
        "Ġset",
        -8.132123106463998
      ],
      [
        "Ġresearch",
        -8.135869828068381
      ],
      [
        "Ġmaking",
        -8.136824817506291
      ],
      [
        ")\\",
        -8.140110829684218
      ],
      [
        "Ġfound",
        -8.141850471649951
      ],
      [
        "Ġtype",
        -8.14794484920185
      ],
      [
        "Ġeffective",
        -8.161532344729714
      ],
      [
        "Ġuntil",
        -8.16332204250111
      ],
      [
        "Ġback",
        -8.166634710450017
      ],
      [
        "Ġfeel",
        -8.169750629577635
      ],
      [
        "Ġsmall",
        -8.17370257503607
      ],
      [
        "yesterday",
        -8.174326807583936
      ],
      [
        "Ġboth",
        -8.178036637989143
      ],
      [
        "Ġlong",
        -8.180371525104848
      ],
      [
        "Ġmusic",
        -8.18078742526789
      ],
      [
        "Ġwant",
        -8.181216683233512
      ],
      [
        "Ġdesign",
        -8.196120988535107
      ],
      [
        "Ġunique",
        -8.197199929012234
      ],
      [
        "Ġonly",
        -8.20633837830966
      ],
      [
        "Ġmistake",
        -8.212089471089328
      ],
      [
        "Ġtwo",
        -8.216182898364394
      ],
      [
        "Ġpower",
        -8.217397755970289
      ],
      [
        "Ġbest",
        -8.218941372077632
      ],
      [
        "Ġplace",
        -8.219600831574022
      ],
      [
        "ĠĠĠĠĠĠĠ",
        -8.225443313517268
      ],
      [
        "Ġtogether",
        -8.229105427171183
      ],
      [
        "Ġpotential",
        -8.232694580629767
      ],
      [
        "Ġaction",
        -8.234570487082367
      ],
      [
        "Ġprocess",
        -8.249177849223702
      ],
      [
        "Ġdown",
        -8.25193205740418
      ],
      [
        "Ġafter",
        -8.255162064857494
      ],
      [
        "Ġtips",
        -8.264836395786585
      ],
      [
        "Ġwebsite",
        -8.268712058932307
      ],
      [
        "Ġstudents",
        -8.269599759475236
      ],
      [
        "Ġcompany",
        -8.275803953456224
      ],
      [
        "Ġaccess",
        -8.278792828575694
      ],
      [
        "Ġgood",
        -8.280645618178083
      ],
      [
        "Ġlocal",
        -8.28234693586379
      ],
      [
        "Ġoften",
        -8.285051927793136
      ],
      [
        "Ġcustomer",
        -8.288978276493582
      ],
      [
        "those",
        -8.28994751831225
      ],
      [
        "Ġsense",
        -8.295065216282426
      ],
      [
        "Ġstory",
        -8.295234864046005
      ],
      [
        "Ġhim",
        -8.296522486389573
      ],
      [
        "Ġbusiness",
        -8.298240731429052
      ],
      [
        "Ġbecause",
        -8.303951117200384
      ],
      [
        "Ġindustry",
        -8.305040973031115
      ],
      [
        "Ġcommunity",
        -8.308809819083281
      ],
      [
        "Ġaudience",
        -8.315043292220642
      ],
      [
        "Ġfamily",
        -8.322847850840525
      ],
      [
        "Ġpast",
        -8.327084918315439
      ],
      [
        "yes",
        -8.33089363269936
      ],
      [
        "Ġfocus",
        -8.331465792463545
      ],
      [
        "Ġcity",
        -8.34200624691494
      ],
      [
        "Ġservices",
        -8.347589705425033
      ],
      [
        "Ġgive",
        -8.347851141296914
      ],
      [
        "Ġalways",
        -8.350994889842529
      ],
      [
        "Ġmental",
        -8.355831560896227
      ],
      [
        "and",
        -8.359115802978957
      ],
      [
        "Ġusers",
        -8.361852639728285
      ],
      [
        "Ġbetter",
        -8.362616184926544
      ],
      [
        "Ġhome",
        -8.366736858509858
      ],
      [
        "Ġpersonal",
        -8.369243747392494
      ],
      [
        "Ġyears",
        -8.371734081239257
      ],
      [
        "Ġseveral",
        -8.372281550508179
      ],
      [
        "Ġgroup",
        -8.372612645964349
      ],
      [
        "Ġkey",
        -8.377671372279357
      ],
      [
        "Ġfeatures",
        -8.381668420873343
      ],
      [
        "Ġsearch",
        -8.38462115746642
      ],
      [
        "#",
        -8.38652464542619
      ],
      [
        "]",
        -8.389671027953762
      ],
      [
        "Ġproduct",
        -8.395066756446935
      ],
      [
        "various",
        -8.395649741801067
      ],
      [
        "Ġcustomers",
        -8.40225118802607
      ],
      [
        "Ġlook",
        -8.404397402592542
      ],
      [
        "terms",
        -8.41118086529375
      ],
      [
        "Ġnumber",
        -8.411898334474293
      ],
      [
        "Ġproducts",
        -8.413884751042128
      ],
      [
        "Ġresources",
        -8.427098397143569
      ],
      [
        "doing",
        -8.441788165800109
      ],
      [
        "Ġproject",
        -8.44214640612849
      ],
      [
        "Ġsure",
        -8.443965527838667
      ],
      [
        "let",
        -8.4448993717114
      ],
      [
        "Ġincrease",
        -8.445106336691971
      ],
      [
        "additionally",
        -8.454723038070073
      ],
      [
        "Ġtraditional",
        -8.457828921970945
      ],
      [
        "Ġmachine",
        -8.45822622095466
      ],
      [
        "Ġdetails",
        -8.45881654045813
      ],
      [
        "Ġchange",
        -8.46228315491041
      ],
      [
        "Ġstart",
        -8.464772620592031
      ],
      [
        "Ġart",
        -8.46719486904283
      ],
      [
        "Ġbenefits",
        -8.46754937603926
      ],
      [
        "out",
        -8.46936649357719
      ],
      [
        "Ġonline",
        -8.46970330696608
      ],
      [
        "j",
        -8.471909681472368
      ],
      [
        "Ġevery",
        -8.475065363300901
      ],
      [
        "Ġminutes",
        -8.475278972211708
      ],
      [
        "Ġbecome",
        -8.475700781747157
      ],
      [
        "Ġdon",
        -8.479287441696803
      ],
      [
        "challenges",
        -8.48506220921132
      ],
      [
        "Ġexplain",
        -8.4863466965724
      ],
      [
        "Ġskills",
        -8.487080115711349
      ],
      [
        "Ġmust",
        -8.488057177615449
      ],
      [
        "Ġlearning",
        -8.490892827101804
      ],
      [
        "00",
        -8.49234843660753
      ],
      [
        "%",
        -8.492832718509273
      ],
      [
        "Ġcup",
        -8.495414151349681
      ],
      [
        "Ġlanguage",
        -8.501013375956349
      ],
      [
        "Ġself",
        -8.506172449843465
      ],
      [
        "Ġmuch",
        -8.507386103418119
      ],
      [
        "Ġperformance",
        -8.50922292467766
      ],
      [
        "Ġbrand",
        -8.51444688219427
      ],
      [
        "certainly",
        -8.518906048233937
      ],
      [
        "creating",
        -8.522513112819098
      ],
      [
        "Ġplan",
        -8.522760396248117
      ],
      [
        "Ġdoes",
        -8.522881694396924
      ],
      [
        "thinking",
        -8.523403504782431
      ],
      [
        "Ġstill",
        -8.523589200073285
      ],
      [
        "Ġrange",
        -8.526064976752659
      ],
      [
        "?\\",
        -8.526806720664837
      ],
      [
        "Ġorganization",
        -8.528784891784422
      ],
      [
        "Ġnatural",
        -8.530445889569828
      ],
      [
        "Ġeasy",
        -8.530543606898373
      ],
      [
        "Ġplease",
        -8.53055021819643
      ],
      [
        "Ġsomething",
        -8.531325674008887
      ],
      [
        "Ġtext",
        -8.531742495637287
      ],
      [
        "Ġsituation",
        -8.536458074535378
      ],
      [
        "Ġcost",
        -8.53859604710315
      ],
      [
        "Ġallow",
        -8.540525152638622
      ],
      [
        "Ġavoid",
        -8.544918929614695
      ],
      [
        "Ġmoving",
        -8.545175203429675
      ],
      [
        "Ġmarket",
        -8.546076959557276
      ],
      [
        "Ġoptions",
        -8.54732994245213
      ],
      [
        "Ġapp",
        -8.551868193429055
      ],
      [
        "Ġexperiment",
        -8.55754405307415
      ],
      [
        "Ġmanagement",
        -8.56008000851377
      ],
      [
        ";\\",
        -8.561268178279184
      ],
      [
        "Ġenvironment",
        -8.563769966219445
      ],
      [
        "Ġend",
        -8.565333479427883
      ],
      [
        "Ġgo",
        -8.565749481882397
      ],
      [
        "Ġstay",
        -8.565819332572563
      ],
      [
        "Ġoil",
        -8.56758722401382
      ],
      [
        "Ġname",
        -8.570766842369064
      ],
      [
        "043",
        -8.57160384672565
      ],
      [
        "Ġconsider",
        -8.57311381338866
      ],
      [
        "Ġnever",
        -8.575981144251564
      ],
      [
        "Ġright",
        -8.57777805791026
      ],
      [
        "according",
        -8.57778427690923
      ],
      [
        "Ġlight",
        -8.577868964039858
      ],
      [
        "Ġclear",
        -8.583416665640442
      ],
      [
        "Ġwithout",
        -8.587169869411555
      ],
      [
        "Ġstudy",
        -8.591594222040145
      ],
      [
        ";",
        -8.594938204301764
      ],
      [
        "Ġpositive",
        -8.595838800696741
      ],
      [
        "Ġways",
        -8.600994172008367
      ],
      [
        "overall",
        -8.604397410589355
      ],
      [
        "ability",
        -8.607470613295147
      ],
      [
        "Ġcome",
        -8.60913078822082
      ],
      [
        "ve",
        -8.61283610984651
      ],
      [
        "Ġbook",
        -8.61402386115274
      ],
      [
        "Ġeveryone",
        -8.614185441799082
      ],
      [
        "Ġpublic",
        -8.616880326613513
      ],
      [
        "Ġservice",
        -8.617510049443268
      ],
      [
        "identify",
        -8.618517688937418
      ],
      [
        "knew",
        -8.619003470404602
      ],
      [
        "Ġfelt",
        -8.619793823880999
      ],
      [
        "Ġhistory",
        -8.623428479307584
      ],
      [
        "Ġpart",
        -8.627470142690965
      ],
      [
        "Ġ10",
        -8.630203831775294
      ],
      [
        "Ġpopular",
        -8.634105919768707
      ],
      [
        "Ġlead",
        -8.635026973620883
      ],
      [
        "Ġtechniques",
        -8.635664564967318
      ],
      [
        "Ġessential",
        -8.636758124560483
      ],
      [
        "Ġtell",
        -8.639017362432659
      ],
      [
        "Ġshare",
        -8.641947932732057
      ],
      [
        "Ġgrowth",
        -8.643700823802574
      ],
      [
        "Ġfunction",
        -8.644441218213212
      ],
      [
        "Ġlarge",
        -8.644543531224478
      ],
      [
        "individuals",
        -8.64504316534802
      ],
      [
        "Ġlearn",
        -8.64538434177951
      ],
      [
        "Ġlist",
        -8.646941920690333
      ],
      [
        "Ġfuture",
        -8.652004373176041
      ],
      [
        "Ġgoals",
        -8.656244346614475
      ],
      [
        "Ġsimilar",
        -8.65657989018018
      ],
      [
        "Ġhope",
        -8.656626474041872
      ],
      [
        "Ġreally",
        -8.656663064615003
      ],
      [
        "Ġanother",
        -8.656921935578499
      ],
      [
        "Ġpromote",
        -8.658679199714593
      ],
      [
        "Ġsong",
        -8.660907240310806
      ],
      [
        "Ġthink",
        -8.662958105652029
      ],
      [
        "Ġoverall",
        -8.664095780698872
      ],
      [
        "Ġtraining",
        -8.667541682869702
      ],
      [
        "Ġtop",
        -8.667740950947293
      ],
      [
        "Ġactivities",
        -8.672009385097832
      ],
      [
        "Ġexplore",
        -8.673629242382164
      ],
      [
        "Ġorder",
        -8.67473621584809
      ],
      [
        "Ġyear",
        -8.675227927245384
      ],
      [
        "z",
        -8.675552914201978
      ],
      [
        "Ġevents",
        -8.677734085113583
      ],
      [
        "Ġtools",
        -8.678215355265454
      ],
      [
        "Ġunderstand",
        -8.679459442073162
      ],
      [
        "Ġbusinesses",
        -8.679906984942251
      ],
      [
        "Ġsaid",
        -8.68257289145989
      ],
      [
        "Ġphysical",
        -8.683501171855307
      ],
      [
        "Ġhuman",
        -8.684870848307623
      ],
      [
        "Ġavailable",
        -8.685687910065472
      ],
      [
        "Ġsubject",
        -8.687280478023435
      ],
      [
        "Ġbody",
        -8.687754967436604
      ],
      [
        "Ġstyle",
        -8.689947361004265
      ],
      [
        "Ġothers",
        -8.695687963698353
      ],
      [
        "Ġsuccessful",
        -8.707872382845439
      ],
      [
        "Ġeducation",
        -8.709349201948493
      ],
      [
        "Ġsuccess",
        -8.716127148189663
      ],
      [
        "by",
        -8.716142498752463
      ],
      [
        "Ġcultural",
        -8.719469799825747
      ],
      [
        "Ġreal",
        -8.725350702751097
      ],
      [
        "Ġvalue",
        -8.72669223896894
      ],
      [
        "Ġprovid",
        -8.73024831869242
      ],
      [
        "ness",
        -8.73359674578069
      ],
      [
        "Ġball",
        -8.733680110168864
      ],
      [
        "Ġsound",
        -8.733681055202341
      ],
      [
        "Ġschool",
        -8.733848413521727
      ],
      [
        "Ġdevelop",
        -8.733954638595911
      ],
      [
        "Ġsuggest",
        -8.735247122399487
      ],
      [
        "Ġtarget",
        -8.735527064079971
      ],
      [
        "Ġcontrol",
        -8.73676372472816
      ],
      [
        "write",
        -8.74276705584695
      ],
      [
        "Ġcommunication",
        -8.74291278857999
      ],
      [
        "Ġheart",
        -8.743041209997722
      ],
      [
        "Ġstrategie",
        -8.748254412228267
      ],
      [
        "Ġfree",
        -8.751000431027512
      ],
      [
        "Ġprofessional",
        -8.751485357412415
      ],
      [
        "Ġcase",
        -8.751570579892483
      ],
      [
        "Ġflavor",
        -8.752613996077814
      ],
      [
        "derived",
        -8.758908884338537
      ],
      [
        "Ġdid",
        -8.759176354936185
      ],
      [
        "Ġpepper",
        -8.761731772639518
      ],
      [
        "Ġlow",
        -8.761958281532186
      ],
      [
        "Ġpicture",
        -8.762297890624783
      ],
      [
        "Ġlevel",
        -8.765610397705116
      ],
      [
        "Ġbuilding",
        -8.76681295331835
      ],
      [
        "Ġgovernment",
        -8.77419719011411
      ],
      [
        "Ġair",
        -8.7781243923532
      ],
      [
        "Ġsynonym",
        -8.784988800190279
      ],
      [
        "Ġgame",
        -8.787620460805137
      ],
      [
        "Ġrecipe",
        -8.789773189890994
      ],
      [
        "Ġpractices",
        -8.789876978419832
      ],
      [
        "Ġjob",
        -8.79553976097864
      ],
      [
        "Ġfresh",
        -8.797088836511147
      ],
      [
        "Ġmaterials",
        -8.797476076669449
      ],
      [
        "Ġregular",
        -8.799750643180625
      ],
      [
        "Ġvisual",
        -8.8003322151154
      ],
      [
        "Ġopen",
        -8.801924169751373
      ],
      [
        "Ġchoose",
        -8.803339782678465
      ],
      [
        "Ġspace",
        -8.80433654273726
      ],
      [
        "Ġquick",
        -8.804529594339346
      ],
      [
        "Ġcourse",
        -8.806181178141415
      ],
      [
        "children",
        -8.807651597751214
      ],
      [
        "Ġwithin",
        -8.808144250340284
      ],
      [
        "Ġsustainable",
        -8.810351509459696
      ],
      [
        "Ġcheck",
        -8.811765879795031
      ],
      [
        "Ġinput",
        -8.814079809531155
      ],
      [
        "anywhere",
        -8.815479736150452
      ],
      [
        "10",
        -8.816909889051775
      ],
      [
        "Ġrelated",
        -8.817341004981087
      ],
      [
        "Ġhealthy",
        -8.817489033024343
      ],
      [
        "Ġinvolve",
        -8.817612135690107
      ],
      [
        "Ġold",
        -8.818236932392272
      ],
      [
        "Ġfollowing",
        -8.81863325348106
      ],
      [
        "Ġchanges",
        -8.821102153010674
      ],
      [
        "Ġface",
        -8.822213400988582
      ],
      [
        "Ġadditional",
        -8.822362207736518
      ],
      [
        "Ġcause",
        -8.82497543486783
      ],
      [
        "Ġworking",
        -8.825155239277692
      ],
      [
        "Ġsoftware",
        -8.825181380295794
      ],
      [
        "Ġhelps",
        -8.828749607187646
      ],
      [
        "Ġheat",
        -8.829591838320658
      ],
      [
        "Ġstress",
        -8.830133799770234
      ],
      [
        "Ġsalt",
        -8.831085674721608
      ],
      [
        "Ġencourage",
        -8.831344123369327
      ],
      [
        "Ġemail",
        -8.83230882120265
      ],
      [
        "Ġformula",
        -8.833618002406196
      ],
      [
        "Ġcampaign",
        -8.834602432047848
      ],
      [
        "Ġonce",
        -8.834885058469032
      ],
      [
        "Ġoff",
        -8.835532006110677
      ],
      [
        "Ġplay",
        -8.839016143301288
      ],
      [
        "062",
        -8.839049242191575
      ],
      [
        "Ġsauce",
        -8.842565730223354
      ],
      [
        "Ġbring",
        -8.844143783997364
      ],
      [
        "Ġeffort",
        -8.844980264926907
      ],
      [
        "Ġrenewable",
        -8.848303184187193
      ],
      [
        "friendly",
        -8.851962667156318
      ],
      [
        "Ġthings",
        -8.856530009138407
      ],
      [
        "theory",
        -8.856557346425173
      ],
      [
        "Ġculture",
        -8.857997598545408
      ],
      [
        "Ġconversation",
        -8.858440881574033
      ],
      [
        "Ġplatform",
        -8.85944825189251
      ],
      [
        "solve",
        -8.860424895728645
      ],
      [
        "Ġparticular",
        -8.86265878801177
      ],
      [
        "ĠâĢĵ",
        -8.862924477762284
      ],
      [
        "Ġbuild",
        -8.865518199959148
      ],
      [
        "Ġcolor",
        -8.866843005101817
      ],
      [
        "Ġshow",
        -8.86725803851893
      ],
      [
        "Ġcar",
        -8.86755199619651
      ],
      [
        "Ġfriends",
        -8.868691510335022
      ],
      [
        ").",
        -8.870917552924174
      ],
      [
        "Ġaddress",
        -8.87437296086831
      ],
      [
        "Ġknown",
        -8.875597442436279
      ],
      [
        "Ġopportunit",
        -8.87569178896988
      ],
      [
        "Ġsame",
        -8.877147426205752
      ],
      [
        "Ġtypes",
        -8.879738941091547
      ],
      [
        "ĠâĢľ",
        -8.880797779215337
      ],
      [
        "Ġcompanies",
        -8.88105104973084
      ],
      [
        "Ġmoment",
        -8.8826451485816
      ],
      [
        "Ġunder",
        -8.888565531880808
      ],
      [
        "Ġcare",
        -8.89036927477211
      ],
      [
        "Ġstep",
        -8.892773856968102
      ],
      [
        "finally",
        -8.893439820765764
      ],
      [
        "Ġrisk",
        -8.893739589888346
      ],
      [
        "towards",
        -8.893819957502236
      ],
      [
        "30",
        -8.893867410728294
      ],
      [
        "```\\",
        -8.90352433849593
      ],
      [
        "Ġmight",
        -8.907337380622405
      ],
      [
        "Ġreach",
        -8.910861838392101
      ],
      [
        "Ġman",
        -8.911830114450945
      ],
      [
        "Ġenjoy",
        -8.912150488054612
      ],
      [
        "Ġper",
        -8.912966292557947
      ],
      [
        "Ġevent",
        -8.915799478505072
      ],
      [
        "Ġserve",
        -8.916560660487267
      ],
      [
        "Ġachieve",
        -8.917623072257697
      ],
      [
        "across",
        -8.917683855278092
      ],
      [
        "Ġtrack",
        -8.918557480212668
      ],
      [
        "Ġstrong",
        -8.918726485591785
      ],
      [
        "reducing",
        -8.919298920888023
      ],
      [
        "taking",
        -8.920334954198754
      ],
      [
        "Ġsize",
        -8.92071368557009
      ],
      [
        "17",
        -8.921675006647195
      ],
      [
        "Ġcheese",
        -8.924920472425645
      ],
      [
        "Ġapplication",
        -8.92601045782137
      ],
      [
        "Ġarea",
        -8.927656788522226
      ],
      [
        "Ġnext",
        -8.927749125378496
      ],
      [
        "variety",
        -8.934272396641214
      ],
      [
        "Ġjourney",
        -8.935750505338646
      ],
      [
        "Ġlast",
        -8.935847596663365
      ],
      [
        "Ġhelpe",
        -8.93680817258731
      ],
      [
        "Ġindividual",
        -8.937639391043197
      ],
      [
        "areas",
        -8.938767402445842
      ],
      [
        "Ġbelieve",
        -8.942736611153569
      ],
      [
        "Ġform",
        -8.94370718246743
      ],
      [
        "Ġeconomic",
        -8.94516433271767
      ],
      [
        "time",
        -8.94863410587285
      ],
      [
        "Ġfeedback",
        -8.949248597469005
      ],
      [
        "Ġprevent",
        -8.951623040743453
      ],
      [
        "Ġside",
        -8.955965920804855
      ],
      [
        "Ġideas",
        -8.956602383548306
      ],
      [
        "&",
        -8.957715381109562
      ],
      [
        "Ġcode",
        -8.959144306860383
      ],
      [
        "Ġinfluence",
        -8.961921979291532
      ],
      [
        "Ġimplement",
        -8.962026702900303
      ],
      [
        "Ġingredients",
        -8.962198144642558
      ],
      [
        "Ġunderstanding",
        -8.963582091851842
      ],
      [
        "Ġpossible",
        -8.963680762525453
      ],
      [
        "06",
        -8.964185073424916
      ],
      [
        "Ġreturn",
        -8.965486280325589
      ],
      [
        "that",
        -8.969622703829799
      ],
      [
        "Ġagainst",
        -8.971246186751788
      ],
      [
        "Ġhand",
        -8.972199579108096
      ],
      [
        "Ġsun",
        -8.979136467391
      ],
      [
        "Ġstarte",
        -8.98038934790225
      ],
      [
        "looking",
        -8.980851380115633
      ],
      [
        "Ġallows",
        -8.98098559739942
      ],
      [
        "Ġfinancial",
        -8.981833840342043
      ],
      [
        "Ġrealize",
        -8.982836372555749
      ],
      [
        "Ġperson",
        -8.983114792013144
      ],
      [
        "Ġincorporate",
        -8.986729815529717
      ],
      [
        "Ġleading",
        -8.98728267731367
      ],
      [
        "designed",
        -8.988607750354664
      ],
      [
        "continue",
        -8.990187554035415
      ],
      [
        "Ġdeep",
        -8.990709395693743
      ],
      [
        "Ġemotional",
        -8.992415991698381
      ],
      [
        "Ġbegan",
        -8.993916343121365
      ],
      [
        "Ġline",
        -8.994806334803625
      ],
      [
        "Ġalong",
        -8.997447071655815
      ],
      [
        "Ġperfect",
        -8.997740103491102
      ],
      [
        "self",
        -8.999095415122062
      ],
      [
        "Ġapproach",
        -8.999129155720835
      ],
      [
        "Ġstore",
        -9.000217881940957
      ],
      [
        "Ġfurther",
        -9.000505571894465
      ],
      [
        "Ġhomework",
        -9.003036365745489
      ],
      [
        "Ġtense",
        -9.004392061234965
      ],
      [
        "Ġworks",
        -9.006064361972413
      ],
      [
        "Ġmix",
        -9.006333595236562
      ],
      [
        "engaging",
        -9.007231519432302
      ],
      [
        "Ġroom",
        -9.007831227567074
      ],
      [
        "issues",
        -9.009191173121245
      ],
      [
        "Ġnature",
        -9.009384281473553
      ],
      [
        "Ġnight",
        -9.014084233545177
      ],
      [
        "Ġwide",
        -9.01420545191447
      ],
      [
        "Ġanalysis",
        -9.014633536866144
      ],
      [
        "Ġmaterial",
        -9.016415125157875
      ],
      [
        "Ġthree",
        -9.017776082339536
      ],
      [
        "q",
        -9.019120862292532
      ],
      [
        "15",
        -9.022380456207364
      ],
      [
        "needed",
        -9.025899067587387
      ],
      [
        "Ġvery",
        -9.02616265734224
      ],
      [
        "Ġsecurity",
        -9.026185982603396
      ],
      [
        "Ġmodern",
        -9.028200293529483
      ],
      [
        "Ġessay",
        -9.031044192091649
      ],
      [
        "Ġeffects",
        -9.032882470776778
      ],
      [
        "Ġfollow",
        -9.034358261007243
      ],
      [
        "Ġcomplete",
        -9.03888130825426
      ],
      [
        "Ġcomplex",
        -9.039691056489474
      ],
      [
        ".\\\"\\",
        -9.040433504358491
      ],
      [
        "Ġincludes",
        -9.040700651846109
      ],
      [
        "Ġclimate",
        -9.042917216121706
      ],
      [
        "Ġcharacter",
        -9.04444334645259
      ],
      [
        "Ġdifficult",
        -9.044611894612604
      ],
      [
        "Ġguide",
        -9.045237692811162
      ],
      [
        "Ġgreen",
        -9.046195772649648
      ],
      [
        "Ġdigital",
        -9.04670410211414
      ],
      [
        "ity",
        -9.046755218364366
      ],
      [
        "Ġmembers",
        -9.047535343755102
      ],
      [
        "Ġemotion",
        -9.048633243645993
      ],
      [
        "Ġaway",
        -9.0487240292852
      ],
      [
        "Ġexercise",
        -9.050418472049136
      ],
      [
        "Ġlive",
        -9.05173729453588
      ],
      [
        "Ġled",
        -9.052146802536146
      ],
      [
        "Ġtransportation",
        -9.05851862301484
      ],
      [
        "),",
        -9.058827373835909
      ],
      [
        "Ġstudent",
        -9.061996176625042
      ],
      [
        "Ġsimple",
        -9.063524292062809
      ],
      [
        "verbs",
        -9.065277439087456
      ],
      [
        "Ġphone",
        -9.065958198985632
      ],
      [
        "none",
        -9.06699593362364
      ],
      [
        "Ġred",
        -9.06701080268043
      ],
      [
        "healthcare",
        -9.06751585528439
      ],
      [
        "offers",
        -9.067610509042405
      ],
      [
        "Ġproduction",
        -9.067764229120256
      ],
      [
        "<",
        -9.068421520216788
      ],
      [
        "Ġgoing",
        -9.069263342725588
      ],
      [
        "ĠĠĠĠĠĠĠĠĠĠĠ",
        -9.06953418182069
      ],
      [
        "Ġchicken",
        -9.070587626459494
      ],
      [
        "Ġenhance",
        -9.072129443423542
      ],
      [
        "elements",
        -9.07222980247444
      ],
      [
        "Ġcurrent",
        -9.07333294200138
      ],
      [
        "Ġsteps",
        -9.07505662769432
      ],
      [
        "Ġnegative",
        -9.075988363880118
      ],
      [
        "among",
        -9.078004894571396
      ],
      [
        "instead",
        -9.07917341780102
      ],
      [
        "Ġblack",
        -9.079222621095754
      ],
      [
        "Ġrelationships",
        -9.08005633075802
      ],
      [
        "how",
        -9.084190705408473
      ],
      [
        "Ġchallenge",
        -9.084279313205418
      ],
      [
        "Ġtimes",
        -9.086167167822934
      ],
      [
        "Ġvideo",
        -9.0876238191099
      ],
      [
        "Ġidea",
        -9.089133862927396
      ],
      [
        "Ġpiece",
        -9.09092409183648
      ],
      [
        "Ġstruggle",
        -9.09503535317048
      ],
      [
        "importance",
        -9.096607833105256
      ],
      [
        "feeling",
        -9.09781689959214
      ],
      [
        "Ġemployees",
        -9.100609167051164
      ],
      [
        "?'",
        -9.10184260810774
      ],
      [
        "Ġmatch",
        -9.104717224827692
      ],
      [
        "Ġnon",
        -9.107850943096546
      ],
      [
        "Ġsource",
        -9.109627795990855
      ],
      [
        "Ġeverything",
        -9.1132029240988
      ],
      [
        ",\\\"",
        -9.113228090969187
      ],
      [
        "Ġsales",
        -9.11491641154607
      ],
      [
        "Ġtaste",
        -9.11775007943267
      ],
      [
        "Ġpaper",
        -9.11983365394488
      ],
      [
        "Ġreport",
        -9.12474503480554
      ],
      [
        "Ġhours",
        -9.124930914757714
      ],
      [
        "Ġbehavior",
        -9.126430711832889
      ],
      [
        "32",
        -9.129200373845046
      ],
      [
        "Ġamount",
        -9.129742866772377
      ],
      [
        "Ġresult",
        -9.130204546207388
      ],
      [
        "Ġresponse",
        -9.130219856992252
      ],
      [
        "necessary",
        -9.133138810958728
      ],
      [
        "Ġmind",
        -9.13457254336408
      ],
      [
        "Ġcontribute",
        -9.137975901679525
      ],
      [
        "Ġcenter",
        -9.140129252109496
      ],
      [
        "Ġengagement",
        -9.140483045044151
      ],
      [
        "of",
        -9.143713492386562
      ],
      [
        "*",
        -9.14571578991388
      ],
      [
        "Ġleft",
        -9.146372869182729
      ],
      [
        "28",
        -9.14744194088447
      ],
      [
        "sources",
        -9.148237617663746
      ],
      [
        "Ġhard",
        -9.149035963130077
      ],
      [
        "Ġdaily",
        -9.152379297164952
      ],
      [
        "Ġenvironmental",
        -9.153922696111904
      ],
      [
        "Ġwaste",
        -9.154342004196936
      ],
      [
        "Ġactions",
        -9.154471477306684
      ],
      [
        "ally",
        -9.154750123893212
      ],
      [
        "Ġread",
        -9.155725679886828
      ],
      [
        "Ġproduce",
        -9.156090351713
      ],
      [
        "Ġregion",
        -9.158176303962389
      ],
      [
        "Ġtoday",
        -9.161021901909214
      ],
      [
        "Ġcontinue",
        -9.16145750561008
      ],
      [
        "Ġbowl",
        -9.1615725440808
      ],
      [
        "Ġmain",
        -9.163327914825096
      ],
      [
        "Ġtool",
        -9.16462032437058
      ],
      [
        "Ġdue",
        -9.166674952258738
      ],
      [
        "Ġfile",
        -9.168057206282285
      ],
      [
        "]\\",
        -9.170264483281086
      ],
      [
        "what",
        -9.17029262976553
      ],
      [
        "Ġknowledge",
        -9.170763266940613
      ],
      [
        "Ġforce",
        -9.170919930799698
      ],
      [
        "Ġconclusion",
        -9.17151705521708
      ],
      [
        "agreement",
        -9.172048650207156
      ],
      [
        "Ġtree",
        -9.172677794986702
      ],
      [
        "Ġclean",
        -9.174635470654472
      ],
      [
        "Ġseason",
        -9.176465899477307
      ],
      [
        "nstep",
        -9.177980581539316
      ],
      [
        "Ġdepend",
        -9.181003694305948
      ],
      [
        "Ġarray",
        -9.183104991407957
      ],
      [
        "Ġfeature",
        -9.184628316999824
      ],
      [
        "Ġcountries",
        -9.186053528151229
      ],
      [
        "increased",
        -9.186873257142606
      ],
      [
        "Ġrelevant",
        -9.187259080163454
      ],
      [
        "Ġfull",
        -9.194886994100514
      ],
      [
        "Ġgarlic",
        -9.194895976575015
      ],
      [
        "Ġaffect",
        -9.195004166604178
      ],
      [
        "Ġmessage",
        -9.19555870423602
      ],
      [
        "Ġattention",
        -9.196552867870446
      ],
      [
        "Ġocean",
        -9.196739794926488
      ],
      [
        "anxiety",
        -9.197448439004514
      ],
      [
        "Ġcooking",
        -9.19782616242852
      ],
      [
        "Ġfear",
        -9.198474914134488
      ],
      [
        "000",
        -9.200235962514451
      ],
      [
        "Ġque",
        -9.20072691789012
      ],
      [
        "Ġprogress",
        -9.202417805436758
      ],
      [
        "communities",
        -9.203809152747349
      ],
      [
        "Ġlives",
        -9.205030296071737
      ],
      [
        "Ġliving",
        -9.205624723459248
      ],
      [
        "Ġabove",
        -9.206917007730228
      ],
      [
        "Ġcreative",
        -9.207466836075296
      ],
      [
        "Ġmaintain",
        -9.208069573181048
      ],
      [
        "Ġrecommendations",
        -9.208226974408312
      ],
      [
        "despite",
        -9.209208583296672
      ],
      [
        "Ġdish",
        -9.209314102513195
      ],
      [
        "Ġaddition",
        -9.209527367753948
      ],
      [
        "Ġsweet",
        -9.21023070342521
      ],
      [
        "Ġpresent",
        -9.210376386662892
      ],
      [
        "Ġlittle",
        -9.210787398420257
      ],
      [
        "Ġrecent",
        -9.210843979580249
      ],
      [
        "Ġcolors",
        -9.212656783436293
      ],
      [
        "Ġcomputer",
        -9.212705904545096
      ],
      [
        "Ġbeautiful",
        -9.213452476072936
      ],
      [
        "Ġsounds",
        -9.213813873028096
      ],
      [
        "Ġcook",
        -9.213911923039072
      ],
      [
        "Ġriver",
        -9.217942016244452
      ],
      [
        "Ġcloud",
        -9.221046054923304
      ],
      [
        "vegetables",
        -9.221523578713864
      ],
      [
        "Ġclose",
        -9.222397486582176
      ],
      [
        "Ġstrategy",
        -9.222633810337909
      ],
      [
        "Ġcountry",
        -9.223659555988569
      ],
      [
        "Ġhigher",
        -9.225820586401822
      ],
      [
        "Ġglobal",
        -9.226433626200302
      ],
      [
        "factors",
        -9.226650099587022
      ],
      [
        "Ġweek",
        -9.227752559227191
      ],
      [
        "Ġresults",
        -9.22884680027829
      ],
      [
        "Ġstar",
        -9.229489505594938
      ],
      [
        "Ġmeet",
        -9.230700735460864
      ],
      [
        "Ġ20",
        -9.230895145652536
      ],
      [
        "Ġnational",
        -9.231035289049856
      ],
      [
        "Ġsince",
        -9.231282882665298
      ],
      [
        "became",
        -9.233686722448152
      ],
      [
        "Ġstrength",
        -9.23398760582498
      ],
      [
        "Ġscience",
        -9.234776593522655
      ],
      [
        "Ġnetwork",
        -9.240182061622022
      ],
      [
        "mindfulness",
        -9.240234990746709
      ],
      [
        "Ġbeauty",
        -9.240619662861585
      ],
      [
        "Ġstructure",
        -9.241076202671696
      ],
      [
        "Ġyoung",
        -9.24303436330874
      ],
      [
        "Ġcharacters",
        -9.243208564931225
      ],
      [
        "Ġpost",
        -9.246171062358542
      ],
      [
        "Ġtemperature",
        -9.246598426642027
      ],
      [
        "Ġmanage",
        -9.248751924175028
      ],
      [
        "Ġsleep",
        -9.251520642709725
      ],
      [
        "Ġpark",
        -9.251669038357695
      ],
      [
        "Ġrate",
        -9.252000724070836
      ],
      [
        "levels",
        -9.253280789758534
      ],
      [
        "Ġlocation",
        -9.257026326657543
      ],
      [
        "Ġcomprehensive",
        -9.25991053393206
      ],
      [
        "Ġprotein",
        -9.260347545185931
      ],
      [
        "Ġbalance",
        -9.262111113306329
      ],
      [
        "Ġwhy",
        -9.263132749974472
      ],
      [
        "Ġtravel",
        -9.264268326020822
      ],
      [
        "Ġpoint",
        -9.264342275366769
      ],
      [
        "yourself",
        -9.266933961667034
      ],
      [
        "Ġpowerful",
        -9.268527238668495
      ],
      [
        "Ġagain",
        -9.26908681009634
      ],
      [
        "Ġbutter",
        -9.271635296204876
      ],
      [
        "Ġdays",
        -9.273171474477987
      ],
      [
        "Ġengage",
        -9.274698354658662
      ],
      [
        "26",
        -9.277070358756244
      ],
      [
        "Ġmeditation",
        -9.278571246512326
      ],
      [
        "Ġamerican",
        -9.279969838018568
      ],
      [
        "95",
        -9.281143338843597
      ],
      [
        "detailed",
        -9.282021785414116
      ],
      [
        "Ġmultiple",
        -9.28370787491852
      ],
      [
        "Ġhouse",
        -9.283992260281469
      ],
      [
        "Ġmobile",
        -9.284890777623351
      ],
      [
        "Ġprojects",
        -9.285475659277711
      ],
      [
        "Ġclass",
        -9.285540474648224
      ],
      [
        "Ġfield",
        -9.286117765059457
      ],
      [
        "Ġwind",
        -9.28675536040688
      ],
      [
        "Ġvisit",
        -9.28799389726831
      ],
      [
        "Ġtest",
        -9.288062095394416
      ],
      [
        "Ġprotect",
        -9.288288397298354
      ],
      [
        "Ġskin",
        -9.290582422447311
      ],
      [
        "064",
        -9.292284098731274
      ],
      [
        "Ġgreek",
        -9.292885947408449
      ],
      [
        "Ġless",
        -9.292994300294112
      ],
      [
        "Ġthought",
        -9.295559896213122
      ],
      [
        "Ġvirtual",
        -9.295657528272583
      ],
      [
        "focuse",
        -9.295842832811315
      ],
      [
        "Ġearly",
        -9.296268781614389
      ],
      [
        "Ġremove",
        -9.296893932427908
      ],
      [
        "Ġrelationship",
        -9.29715344325036
      ],
      [
        "Ġefficient",
        -9.29771695847155
      ],
      [
        "Ġdouble",
        -9.29987752782836
      ],
      [
        "Ġever",
        -9.30119487203248
      ],
      [
        "Ġwhite",
        -9.30287719301039
      ],
      [
        "Ġmove",
        -9.304004280899507
      ],
      [
        "Ġuniversity",
        -9.304038192960576
      ],
      [
        "dishes",
        -9.305146269193722
      ],
      [
        "someone",
        -9.305582629547905
      ],
      [
        "enough",
        -9.305606743598831
      ],
      [
        "Ġimages",
        -9.307902420950931
      ],
      [
        "Ġhelpful",
        -9.311510345447427
      ],
      [
        "Ġsugar",
        -9.312800778855562
      ],
      [
        "Ġwar",
        -9.31313314808117
      ],
      [
        "Ġtechnologies",
        -9.313210854369272
      ],
      [
        "Ġtreatment",
        -9.31405765715192
      ],
      [
        "Ġeyes",
        -9.315511976291235
      ],
      [
        "Ġrun",
        -9.3159103888595
      ],
      [
        "Ġdecision",
        -9.316260345081051
      ],
      [
        "hether",
        -9.317751605956955
      ],
      [
        "Ġpage",
        -9.319596907274123
      ],
      [
        "Ġspecial",
        -9.319717616245727
      ],
      [
        "Ġfun",
        -9.31994413955278
      ],
      [
        "Ġpoem",
        -9.32233036944624
      ],
      [
        "mixture",
        -9.322617681823573
      ],
      [
        "Ġstring",
        -9.323055876139817
      ],
      [
        "Ġ//",
        -9.324683788242304
      ],
      [
        "Ġturn",
        -9.325197962821225
      ],
      [
        "Ġhappy",
        -9.330362785985276
      ],
      [
        "Ġsecond",
        -9.33223846275252
      ],
      [
        "nbut",
        -9.333054982843011
      ],
      [
        "Ġsociety",
        -9.336925654291615
      ],
      [
        "step",
        -9.337479074218075
      ],
      [
        "Ġleaves",
        -9.339491367987202
      ],
      [
        "Ġenglish",
        -9.341575404213886
      ],
      [
        "Ġmodel",
        -9.34323274140454
      ],
      [
        "Ġstudies",
        -9.343971658581523
      ],
      [
        "Ġinternational",
        -9.347442788239356
      ],
      [
        "took",
        -9.347532591267546
      ],
      [
        "Ġconnect",
        -9.348467343262026
      ],
      [
        "Ġcritical",
        -9.349077628941174
      ],
      [
        "Ġinterest",
        -9.353153266752749
      ],
      [
        "onion",
        -9.353253793727353
      ],
      [
        "Ġsaw",
        -9.35326178414554
      ],
      [
        "Ġpersonalized",
        -9.353282602562642
      ],
      [
        "Ġbehind",
        -9.353421056192742
      ],
      [
        "Ġtasks",
        -9.353487098387596
      ],
      [
        "Ġhot",
        -9.353640411040274
      ],
      [
        "Ġtexture",
        -9.353769191740756
      ],
      [
        "Ġhold",
        -9.354010379156389
      ],
      [
        "!\\",
        -9.354496825904988
      ],
      [
        "Ġ}\\",
        -9.3573719430853
      ],
      [
        "up",
        -9.357679354913325
      ],
      [
        "Ġtakes",
        -9.357869362818896
      ],
      [
        "developing",
        -9.358495687072264
      ],
      [
        "Ġdevices",
        -9.358500880188265
      ],
      [
        "Ġseen",
        -9.35912232618064
      ],
      [
        "having",
        -9.359713678084564
      ],
      [
        "Ġgiven",
        -9.359744994470072
      ],
      [
        "nthese",
        -9.360019241551198
      ],
      [
        "least",
        -9.361127741092984
      ],
      [
        "Ġflower",
        -9.36185301129653
      ],
      [
        "Ġgeneral",
        -9.362741195847509
      ],
      [
        "Ġground",
        -9.363169034341569
      ],
      [
        "Ġprice",
        -9.364181982997364
      ],
      [
        "Ġsave",
        -9.364518328464143
      ],
      [
        "Ġreflect",
        -9.364684470123509
      ],
      [
        "Ġdelicious",
        -9.367031311369232
      ],
      [
        "Ġinteresting",
        -9.368185962969372
      ],
      [
        "Ġproper",
        -9.36938103849326
      ],
      [
        "Ġsuggestions",
        -9.369401180036984
      ],
      [
        "Ġsetting",
        -9.370694097724389
      ],
      [
        "Ġimage",
        -9.37157531169147
      ],
      [
        "Ġdivide",
        -9.373459593104515
      ],
      [
        "com",
        -9.373484163237563
      ],
      [
        "learned",
        -9.375610139259146
      ],
      [
        "Ġcreated",
        -9.375740571982892
      ],
      [
        "Ġprovided",
        -9.37755313174174
      ],
      [
        "Ġinitiative",
        -9.378621955876213
      ],
      [
        "Ġoption",
        -9.378763876795906
      ],
      [
        "Ġcall",
        -9.380105408136217
      ],
      [
        "Ġbudget",
        -9.381919241222247
      ],
      [
        "Ġbreak",
        -9.382894863608591
      ],
      [
        "Ġrecommend",
        -9.382898167744482
      ],
      [
        "Ġwarm",
        -9.38375289223598
      ],
      [
        "Ġmajor",
        -9.386023732824818
      ],
      [
        "âĢĿ",
        -9.386776169163062
      ],
      [
        "Ġcover",
        -9.3870315549699
      ],
      [
        "Ġweb",
        -9.387125239542726
      ],
      [
        "improving",
        -9.38754305348183
      ],
      [
        "Ġactivity",
        -9.388608456704558
      ],
      [
        "systems",
        -9.390373307194007
      ],
      [
        "Ġlower",
        -9.391093244629737
      ],
      [
        "Ġroutine",
        -9.39145875944966
      ],
      [
        "Ġgrow",
        -9.392351186889943
      ],
      [
        "Ġcut",
        -9.392529594309
      ],
      [
        "Ġcream",
        -9.394487217061153
      ],
      [
        "Ġtown",
        -9.396145043276462
      ],
      [
        "Ġanalyze",
        -9.396934380055365
      ],
      [
        "Ġgenerate",
        -9.397182361582386
      ],
      [
        "Ġperiod",
        -9.399663268451103
      ],
      [
        "Ġtrue",
        -9.39970073855675
      ],
      [
        "Ġpassage",
        -9.400874583616275
      ],
      [
        "stories",
        -9.401265287112496
      ],
      [
        "Ġmountain",
        -9.401547628045517
      ],
      [
        "Ġsite",
        -9.402618477512997
      ],
      [
        "Ġkind",
        -9.40445099284476
      ],
      [
        "free",
        -9.404814229966714
      ],
      [
        "wow",
        -9.40574764324169
      ],
      [
        "Ġadjust",
        -9.406411288411164
      ],
      [
        "quality",
        -9.406415135925435
      ],
      [
        "Ġsalad",
        -9.407121273644744
      ],
      [
        "called",
        -9.407940859116016
      ],
      [
        "(\\\"",
        -9.408877004021209
      ],
      [
        "Ġrequire",
        -9.411171542018884
      ],
      [
        "|",
        -9.413369037385865
      ],
      [
        "Ġplant",
        -9.413371609457853
      ],
      [
        "Ġsolar",
        -9.413477380657248
      ],
      [
        "Ġvalues",
        -9.41546360504101
      ],
      [
        "063",
        -9.415897198745569
      ],
      [
        "getting",
        -9.42001230714018
      ],
      [
        "conditions",
        -9.420195577396653
      ],
      [
        "Ġstand",
        -9.420273975014462
      ],
      [
        "Ġcame",
        -9.420302933053236
      ],
      [
        "nfor",
        -9.420391269394296
      ],
      [
        "lost",
        -9.421023047410795
      ],
      [
        "Ġmatter",
        -9.4224604420454
      ],
      [
        "Ġhead",
        -9.422499737213434
      ],
      [
        "Ġdisplay",
        -9.424319749606404
      ],
      [
        "Ġsay",
        -9.425427120447818
      ],
      [
        "Ġsafe",
        -9.426087816508243
      ],
      [
        "Ġmillion",
        -9.426778583383603
      ],
      [
        "Ġdone",
        -9.427311392361707
      ],
      [
        "Ġjohn",
        -9.42743240468298
      ],
      [
        "Ġdidn",
        -9.428788097811983
      ],
      [
        "Ġthemsel",
        -9.430815466589978
      ],
      [
        "Ġalgorithm",
        -9.431302415574798
      ],
      [
        "ves",
        -9.43308374870528
      ],
      [
        "Ġcontact",
        -9.433117417960196
      ],
      [
        "Ġcomes",
        -9.434115462855154
      ],
      [
        "Ġadded",
        -9.43429270161884
      ],
      [
        "Ġtherapy",
        -9.434600552988012
      ],
      [
        "term",
        -9.438113126880436
      ],
      [
        "awareness",
        -9.439710546420704
      ],
      [
        "patterns",
        -9.440056830435516
      ],
      [
        "Ġcrucial",
        -9.442862568517423
      ],
      [
        "Ġmoney",
        -9.443281556689556
      ],
      [
        "Ġgoal",
        -9.445954492093016
      ],
      [
        "Ġpurpose",
        -9.44693366824669
      ],
      [
        "Ġmedical",
        -9.447435147018844
      ],
      [
        "Ġmethods",
        -9.4488707341174
      ],
      [
        "Ġfilm",
        -9.44978603619898
      ],
      [
        "Ġmovement",
        -9.450171728627575
      ],
      [
        "Ġvoice",
        -9.450330177810192
      ],
      [
        "Ġput",
        -9.451234314093467
      ],
      [
        "Ġstates",
        -9.45130344943006
      ],
      [
        "Ġhalf",
        -9.451603535503844
      ],
      [
        "Ġdog",
        -9.452102442019084
      ],
      [
        "Ġpurchase",
        -9.453659225241946
      ],
      [
        ");\\",
        -9.454647087827878
      ],
      [
        "you",
        -9.455028758143705
      ],
      [
        "Ġrepresent",
        -9.455807470031209
      ],
      [
        "Ġteacher",
        -9.455882057920787
      ],
      [
        "Ġdark",
        -9.456375886584803
      ],
      [
        "044",
        -9.458004126007523
      ],
      [
        "Ġitems",
        -9.45962681306592
      ],
      [
        "promoting",
        -9.461941516698367
      ],
      [
        "Ġchoppe",
        -9.462229201011883
      ],
      [
        "Ġinvestment",
        -9.465381221603003
      ],
      [
        "Ġcareer",
        -9.465499304969647
      ],
      [
        "Ġolive",
        -9.466368618150442
      ],
      [
        "easily",
        -9.467081068055991
      ],
      [
        "Ġbig",
        -9.46849481527142
      ],
      [
        "Ġunited",
        -9.470796821794073
      ],
      [
        "Ġdance",
        -9.47337837115718
      ],
      [
        "Ġaspect",
        -9.47343870578841
      ],
      [
        "Ġmilk",
        -9.477073756261516
      ],
      [
        "platforms",
        -9.478033750098112
      ],
      [
        "19",
        -9.478338798249537
      ],
      [
        "Ġmethod",
        -9.480691451167097
      ],
      [
        "Ġage",
        -9.48108825849153
      ],
      [
        "Ġrich",
        -9.481294294050324
      ],
      [
        "solutions",
        -9.4813865359465
      ],
      [
        "Ġissue",
        -9.483228772269976
      ],
      [
        "Ġforest",
        -9.483833811980148
      ],
      [
        "Ġsarah",
        -9.484641005927063
      ],
      [
        "Ġ12",
        -9.485912767015298
      ],
      [
        "played",
        -9.486197575266475
      ],
      [
        "programs",
        -9.486968387469783
      ],
      [
        "creature",
        -9.487051336426967
      ],
      [
        "Ġpoints",
        -9.488365498863258
      ],
      [
        "Ġclients",
        -9.488620940801988
      ],
      [
        "Ġelse",
        -9.489052602978555
      ],
      [
        "Ġpay",
        -9.489232145783149
      ],
      [
        "Ġinfrastructure",
        -9.489234246909213
      ],
      [
        "Ġrice",
        -9.490925280332725
      ],
      [
        "Ġalternative",
        -9.4911378810746
      ],
      [
        "Ġbackground",
        -9.491565551900797
      ],
      [
        "abilities",
        -9.492513901307149
      ],
      [
        "Ġcollaboration",
        -9.493524598403734
      ],
      [
        "Ġamazing",
        -9.493583480751305
      ],
      [
        "}\\",
        -9.493742976740585
      ],
      [
        "Ġcool",
        -9.493890297674623
      ],
      [
        "Ġcarbon",
        -9.494868005200166
      ],
      [
        "outcome",
        -9.496720317453685
      ],
      [
        "Ġsafety",
        -9.49890543792279
      ],
      [
        "Ġcertain",
        -9.499437532566668
      ],
      [
        "associated",
        -9.500405874267456
      ],
      [
        "Ġweight",
        -9.500722896581324
      ],
      [
        "Ġlot",
        -9.50143023135166
      ],
      [
        "Ġshows",
        -9.50348108635218
      ],
      [
        "Ġfaced",
        -9.5063223064533
      ],
      [
        "Ġcoffee",
        -9.507816883624432
      ],
      [
        "Ġancient",
        -9.508049677530124
      ],
      [
        "Ġoven",
        -9.50984722814078
      ],
      [
        ">\\",
        -9.510422908128726
      ],
      [
        "Ġinstructions",
        -9.51088901081418
      ],
      [
        "Ġproblem",
        -9.51165387969407
      ],
      [
        "interested",
        -9.513440585076296
      ],
      [
        "Ġgoogle",
        -9.513459317717489
      ],
      [
        "adding",
        -9.514980004099888
      ],
      [
        "Ġgames",
        -9.51596130984826
      ],
      [
        "valuable",
        -9.51805846060371
      ],
      [
        "Ġreview",
        -9.518332721219396
      ],
      [
        "Ġpolitical",
        -9.518343485267316
      ],
      [
        "Ġequipment",
        -9.518414342297856
      ],
      [
        "Ġelement",
        -9.518610129002884
      ],
      [
        "Ġdisease",
        -9.518996175084698
      ],
      [
        "Ġmakes",
        -9.519338876649662
      ],
      [
        "Ġfavorite",
        -9.519992457687092
      ],
      [
        "limited",
        -9.520056054793251
      ],
      [
        "Ġseries",
        -9.520385354012715
      ],
      [
        "Ġtrust",
        -9.52203437848036
      ],
      [
        "Ġsea",
        -9.52216183921763
      ],
      [
        "Ġfar",
        -9.522818203524931
      ],
      [
        "especially",
        -9.52311112042666
      ],
      [
        "Ġview",
        -9.523457145798098
      ],
      [
        "baking",
        -9.524377749560276
      ],
      [
        "Ġwrite",
        -9.525762985537863
      ],
      [
        "Ġweather",
        -9.525859997069556
      ],
      [
        "Ġwords",
        -9.527143089743438
      ],
      [
        "located",
        -9.529915333809956
      ],
      [
        "Ġdemand",
        -9.530042006592131
      ],
      [
        "Ġhandle",
        -9.53229577978605
      ],
      [
        "Ġsolution",
        -9.532307549199311
      ],
      [
        "Ġrest",
        -9.535634621081195
      ],
      [
        "Ġsurface",
        -9.537151772741865
      ],
      [
        "Ġrequired",
        -9.537520384505278
      ],
      [
        "trying",
        -9.537598048698817
      ],
      [
        "Ġdetermine",
        -9.539704750286646
      ],
      [
        "nthis",
        -9.540557965814545
      ],
      [
        "Ġsecure",
        -9.541442166493647
      ],
      [
        "Ġpolicie",
        -9.542033329239969
      ],
      [
        "Ġfinal",
        -9.543541568503278
      ],
      [
        "Ġgroups",
        -9.544353365450036
      ],
      [
        "Ġhear",
        -9.544747702880697
      ],
      [
        "Ġdry",
        -9.544855414889136
      ],
      [
        "20",
        -9.545101541892253
      ],
      [
        "Ġhighlight",
        -9.548287585756542
      ],
      [
        "opportunity",
        -9.549142143077534
      ],
      [
        "Ġloss",
        -9.549455795686791
      ],
      [
        "Ġoptimize",
        -9.549703249564766
      ],
      [
        "à¥",
        -9.551069727111194
      ],
      [
        "Ġforward",
        -9.551441070529371
      ],
      [
        "Ġpain",
        -9.55203719590468
      ],
      [
        "Ġplants",
        -9.552983823296554
      ],
      [
        "Ġpowder",
        -9.554242979098303
      ],
      [
        "Ġwhole",
        -9.555991866606153
      ],
      [
        "Ġmoon",
        -9.55618159865989
      ],
      [
        "being",
        -9.557264030876183
      ],
      [
        "Ġreceive",
        -9.557663896925268
      ],
      [
        "Ġfruit",
        -9.55825465081706
      ],
      [
        "Ġplayers",
        -9.558319307364972
      ],
      [
        "anything",
        -9.558461014385427
      ],
      [
        "Ġsection",
        -9.558798125694132
      ],
      [
        "Ġmedium",
        -9.562386089114256
      ],
      [
        "Ġdamage",
        -9.56259343230395
      ],
      [
        "insights",
        -9.563673446894704
      ],
      [
        "showcase",
        -9.565091446557425
      ],
      [
        "Ġcollection",
        -9.565303381862991
      ],
      [
        "Ġscientist",
        -9.565993710826346
      ],
      [
        "Ġconcern",
        -9.568301190347574
      ],
      [
        "Ġtraffic",
        -9.568671543831073
      ],
      [
        "with",
        -9.568945640132617
      ],
      [
        "Ġcommunicate",
        -9.569309312819518
      ],
      [
        "offering",
        -9.569335192558064
      ],
      [
        "preferences",
        -9.572910555710717
      ],
      [
        "Ġchallenging",
        -9.573242175906678
      ],
      [
        "Ġadvanced",
        -9.573486349251016
      ],
      [
        "Ġapply",
        -9.575096875526402
      ],
      [
        "planning",
        -9.57551460851431
      ],
      [
        "Ġdifference",
        -9.580751200117652
      ],
      [
        "sharing",
        -9.580878964582537
      ],
      [
        "Ġmeasure",
        -9.580979967119893
      ],
      [
        "built",
        -9.5846751140681
      ],
      [
        "Ġactive",
        -9.585451856149628
      ],
      [
        "Ġbrown",
        -9.5879318225837
      ],
      [
        "Ġovercome",
        -9.588582686340276
      ],
      [
        "Ġdesert",
        -9.589262722099782
      ],
      [
        "Ġvegan",
        -9.590017127843012
      ],
      [
        "Ġnumbers",
        -9.590670921144538
      ],
      [
        "à¤¾",
        -9.590825314568342
      ],
      [
        "Ġoffice",
        -9.59120835382967
      ],
      [
        "Ġmeal",
        -9.591248461030675
      ],
      [
        "Ġschedule",
        -9.592264214011337
      ],
      [
        "Ġoutside",
        -9.592921791076042
      ],
      [
        "Ġchoice",
        -9.592935070637102
      ],
      [
        "Ġadvertising",
        -9.593629050602498
      ],
      [
        "Ġchild",
        -9.594053546853004
      ],
      [
        "Ġthoughts",
        -9.594951493060318
      ],
      [
        ")\"}",
        -9.596348028760064
      ],
      [
        "Ġ30",
        -9.596775901191682
      ],
      [
        "Ġblue",
        -9.597891259673135
      ],
      [
        "Ġposition",
        -9.598223969109531
      ],
      [
        "Ġauthor",
        -9.59986340869803
      ],
      [
        "does",
        -9.600347360537985
      ],
      [
        "Ġcollege",
        -9.601619021330894
      ],
      [
        "Ġdevelope",
        -9.602732194752964
      ],
      [
        "Ġspeed",
        -9.602755436791297
      ],
      [
        "Ġwent",
        -9.603105163829891
      ],
      [
        "Ġfitness",
        -9.603984201948428
      ],
      [
        "Ġscene",
        -9.605359638779785
      ],
      [
        "efficiency",
        -9.60725185379112
      ],
      [
        "easier",
        -9.608143700103344
      ],
      [
        "Ġfour",
        -9.613137990917602
      ],
      [
        "Ġincorporat",
        -9.613900698999409
      ],
      [
        "Ġtotal",
        -9.616261315760008
      ],
      [
        "longer",
        -9.61627438129665
      ],
      [
        "improvement",
        -9.618661896915604
      ],
      [
        "Ġacademic",
        -9.621838979347698
      ],
      [
        "12",
        -9.62232239959773
      ],
      [
        "Ġdrive",
        -9.622419617423343
      ],
      [
        "Ġentire",
        -9.62462002729244
      ],
      [
        "Ġthemes",
        -9.624707853614744
      ],
      [
        "Ġpractical",
        -9.6272876199613
      ],
      [
        "Ġstir",
        -9.627957637746842
      ],
      [
        "Ġjack",
        -9.628975792318268
      ],
      [
        "į",
        -9.629768594150578
      ],
      [
        "could",
        -9.630698506973728
      ],
      [
        "Ġsoup",
        -9.631587380986318
      ],
      [
        "Ġmeat",
        -9.631882711435024
      ],
      [
        "Ġhair",
        -9.635033379620406
      ],
      [
        "Ġinteractive",
        -9.636125885385033
      ],
      [
        "Ġpopulation",
        -9.636565357164136
      ],
      [
        "Ġquestion",
        -9.636814198953042
      ],
      [
        "Ġshape",
        -9.637217218987814
      ],
      [
        "Ġcat",
        -9.637521688542254
      ],
      [
        "35",
        -9.639608507016394
      ],
      [
        "ities",
        -9.64154430484086
      ],
      [
        "Ġincreasing",
        -9.64154437051316
      ],
      [
        "filled",
        -9.64208972921778
      ],
      [
        "Ġreading",
        -9.64252090017752
      ],
      [
        "implemented",
        -9.642850843228551
      ],
      [
        "ultimately",
        -9.64338498223155
      ],
      [
        "Ġreality",
        -9.643598439822483
      ],
      [
        "Ġpressure",
        -9.643672569097976
      ],
      [
        "Ġexcellent",
        -9.643956831332758
      ],
      [
        "Ġbase",
        -9.644004505067125
      ],
      [
        "Ġreader",
        -9.64446865539367
      ],
      [
        "Ġconnection",
        -9.64450462032018
      ],
      [
        "Ġnavigate",
        -9.645575319786662
      ],
      [
        "Ġvisitors",
        -9.64624923153874
      ],
      [
        "written",
        -9.64634493728164
      ],
      [
        "Ġtone",
        -9.647706673930578
      ],
      [
        "likely",
        -9.651212881268396
      ],
      [
        "Ġtesting",
        -9.65128887099499
      ],
      [
        "Ġbreath",
        -9.651811412659807
      ],
      [
        "Ġproductivity",
        -9.651820936925962
      ],
      [
        "Ġprint",
        -9.65299061691652
      ],
      [
        "Ġremote",
        -9.653642426009611
      ],
      [
        "bcd",
        -9.6537998062346
      ],
      [
        "Ġsingle",
        -9.654352863901025
      ],
      [
        "Ġsmooth",
        -9.658118352058018
      ],
      [
        "Ġland",
        -9.658420786074473
      ],
      [
        "Ġmonitor",
        -9.658563931619229
      ],
      [
        "Ġjuice",
        -9.659678649014683
      ],
      [
        "Ġslow",
        -9.66096377683084
      ],
      [
        "Ġtrie",
        -9.661051694998177
      ],
      [
        "Ġappropriate",
        -9.66224236152316
      ],
      [
        "Ġworke",
        -9.662723240590411
      ],
      [
        "Ġmonths",
        -9.663531602172087
      ],
      [
        "Ġlack",
        -9.664156315644169
      ],
      [
        "Ġconflict",
        -9.664538351392576
      ],
      [
        "Ġlatin",
        -9.66464834129667
      ],
      [
        "21",
        -9.66615209087104
      ],
      [
        "Ġfriend",
        -9.667075844277688
      ],
      [
        "Ġvideos",
        -9.66729736882832
      ],
      [
        "Ġmeeting",
        -9.667372330412654
      ],
      [
        "Ġmean",
        -9.66748416369614
      ],
      [
        "Ġleave",
        -9.667673369230355
      ],
      [
        "Ġbenefit",
        -9.668959338537372
      ],
      [
        "Ġact",
        -9.669256458003629
      ],
      [
        "Ġprevious",
        -9.67131609218746
      ],
      [
        "verb",
        -9.67147825729066
      ],
      [
        "create",
        -9.671780021320084
      ],
      [
        "Ġstorage",
        -9.672059043146875
      ],
      [
        "Ġcareful",
        -9.672166406238436
      ],
      [
        "Ġrelease",
        -9.673223504951665
      ],
      [
        "Ġbread",
        -9.673325940583696
      ],
      [
        "Ġgain",
        -9.673691102740658
      ],
      [
        "Ġrestaurant",
        -9.674705811972151
      ],
      [
        "Ġgreater",
        -9.67600318385884
      ],
      [
        "Ġfive",
        -9.67770464713724
      ],
      [
        "highly",
        -9.678592557618607
      ],
      [
        "Ġconstant",
        -9.679006771878624
      ],
      [
        "Ġfestival",
        -9.679083402363164
      ],
      [
        "Ġspread",
        -9.680356913133448
      ],
      [
        "fully",
        -9.68093754960256
      ],
      [
        "Ġfamous",
        -9.681644950412291
      ],
      [
        "Ġhands",
        -9.684496103104696
      ],
      [
        "Ġthing",
        -9.684865480208078
      ],
      [
        "Ġidentity",
        -9.685128849054053
      ],
      [
        "Ġsoft",
        -9.685421376845015
      ],
      [
        "artists",
        -9.68617794421805
      ],
      [
        "economy",
        -9.68655967712895
      ],
      [
        "Ġgarden",
        -9.69146909122878
      ],
      [
        "Ġfashion",
        -9.692037800277385
      ],
      [
        "Ġalready",
        -9.692375849683687
      ],
      [
        "animals",
        -9.692450442227384
      ],
      [
        "Ġuses",
        -9.693006772921612
      ],
      [
        "Ġcombination",
        -9.693291593328626
      ],
      [
        "remember",
        -9.694633064529569
      ],
      [
        "Ġaccount",
        -9.695552075724992
      ],
      [
        "Ġestablish",
        -9.69664563888984
      ],
      [
        "Ġextra",
        -9.696893382475404
      ],
      [
        "Ġwon",
        -9.697163556961344
      ],
      [
        "Ġinside",
        -9.697273810032655
      ],
      [
        "ance",
        -9.697453394117735
      ],
      [
        "Ġanalytics",
        -9.69853915377521
      ],
      [
        "Ġchocolate",
        -9.700114462905695
      ],
      [
        "Ġtrade",
        -9.700797298023486
      ],
      [
        "Ġpan",
        -9.700845537184764
      ],
      [
        "Ġproblems",
        -9.7037525975667
      ],
      [
        "ice",
        -9.704016384153858
      ],
      [
        "Ġtable",
        -9.705535353491324
      ],
      [
        "Ġtouch",
        -9.706610054660558
      ],
      [
        "Ġarticle",
        -9.707848547216273
      ],
      [
        "Ġemissions",
        -9.708948514116456
      ],
      [
        "Ġmission",
        -9.710082894195676
      ],
      [
        "Ġsoon",
        -9.71017875117019
      ],
      [
        "Ġvegetable",
        -9.710418487260531
      ],
      [
        "Ġmaybe",
        -9.71049981862954
      ],
      [
        "Ġclassic",
        -9.710974138236988
      ],
      [
        "your",
        -9.711706875925897
      ],
      [
        "Ġrunning",
        -9.71178835190633
      ],
      [
        "Ġarchitecture",
        -9.711941474312487
      ],
      [
        "Ġseeme",
        -9.712986248553998
      ],
      [
        "name",
        -9.715360376030434
      ],
      [
        "Ġflour",
        -9.716985150193915
      ],
      [
        "Ġgot",
        -9.71702943840846
      ],
      [
        "Ġfast",
        -9.719350217543614
      ],
      [
        "Ġattract",
        -9.719715429409865
      ],
      [
        "Ġanimal",
        -9.720219874247384
      ],
      [
        "Ġthird",
        -9.720226437017384
      ],
      [
        "Ġwomen",
        -9.723329980959184
      ],
      [
        "Ġearth",
        -9.723958627416952
      ],
      [
        "Ġplastic",
        -9.725013353816488
      ],
      [
        "Ġmemory",
        -9.725223118299564
      ],
      [
        "Ġsoil",
        -9.72553326838427
      ],
      [
        "he",
        -9.726082737150543
      ],
      [
        "Ġbit",
        -9.728329152233949
      ],
      [
        "Ġplans",
        -9.729472130293276
      ],
      [
        "cooked",
        -9.731120918448534
      ],
      [
        "Ġserving",
        -9.731231238255477
      ],
      [
        "Ġboard",
        -9.732265434883216
      ],
      [
        "Ġbeyond",
        -9.733619682770616
      ],
      [
        "Ġconsistent",
        -9.733929431753332
      ],
      [
        "life",
        -9.734065180201531
      ],
      [
        "Ġrevenue",
        -9.735178993812282
      ],
      [
        "mentione",
        -9.73583502238476
      ],
      [
        "Ġindustries",
        -9.737381183017424
      ],
      [
        "Ġemployee",
        -9.738990964599145
      ],
      [
        "Ġvivid",
        -9.741360072999148
      ],
      [
        "Ġrequires",
        -9.741498853278095
      ],
      [
        "Ġshared",
        -9.743104467594614
      ],
      [
        "Ġ15",
        -9.743419543038474
      ],
      [
        "0644",
        -9.743550903555333
      ],
      [
        "rates",
        -9.74484779229761
      ],
      [
        "Ġfish",
        -9.746085257393997
      ],
      [
        "Ġeye",
        -9.747502850208548
      ],
      [
        "auxiliary",
        -9.74907780795551
      ],
      [
        "upon",
        -9.749325560300116
      ],
      [
        "Ġwine",
        -9.749399164619774
      ],
      [
        "Ġenter",
        -9.752226767358456
      ],
      [
        "Ġtrees",
        -9.752229081123987
      ],
      [
        "less",
        -9.753234796916598
      ],
      [
        "surrounding",
        -9.753443797397075
      ],
      [
        "Ġadvantage",
        -9.754887050104085
      ],
      [
        "Ġappreciate",
        -9.755714246260558
      ],
      [
        "Ġobstacle",
        -9.75603578186131
      ],
      [
        "Ġwoman",
        -9.756262763639258
      ],
      [
        "negation",
        -9.758395770059344
      ],
      [
        "Ġtrip",
        -9.758561104346054
      ],
      [
        "perspective",
        -9.760086472093407
      ],
      [
        "Ġsummary",
        -9.76024066449932
      ],
      [
        "Ġisland",
        -9.76155434517903
      ],
      [
        "Ġlemon",
        -9.76557259404142
      ],
      [
        "Ġrequirements",
        -9.766023591169988
      ],
      [
        "historical",
        -9.766104336169672
      ],
      [
        "Ġgratitude",
        -9.76989537148046
      ],
      [
        "Ġconstruction",
        -9.770534365028968
      ],
      [
        "Ġevidence",
        -9.773098670998428
      ],
      [
        "Ġinnovation",
        -9.77367656106556
      ],
      [
        "Ġnotice",
        -9.774021542079383
      ],
      [
        "Ġtrends",
        -9.774626705070316
      ],
      [
        "Ġlimit",
        -9.77517929972758
      ],
      [
        "Ġcuisine",
        -9.7763401851917
      ],
      [
        "Ġpatients",
        -9.77665864645404
      ],
      [
        "alone",
        -9.779712905806472
      ],
      [
        "like",
        -9.779842561133384
      ],
      [
        "=\\\"",
        -9.780138519545954
      ],
      [
        "Ġstage",
        -9.780198778401695
      ],
      [
        "Ġpath",
        -9.780514481386396
      ],
      [
        "Ġoutput",
        -9.780957089148984
      ],
      [
        "comfortable",
        -9.78130585126495
      ],
      [
        "Ġbooks",
        -9.781890996600437
      ],
      [
        "myself",
        -9.782174318101388
      ],
      [
        "Ġgas",
        -9.78239904441814
      ],
      [
        "typically",
        -9.783168179716537
      ],
      [
        "thanks",
        -9.783326420948804
      ],
      [
        "Ġlos",
        -9.783327659659523
      ],
      [
        "41",
        -9.785271437857975
      ],
      [
        "Ġsmart",
        -9.785608496073731
      ],
      [
        "Ġmuseum",
        -9.785708995675312
      ],
      [
        "Ġinnovative",
        -9.786032140321698
      ],
      [
        "Ġdepression",
        -9.786463587892309
      ],
      [
        "Ġsustainability",
        -9.786923862514891
      ],
      [
        "Ġallowed",
        -9.787523216166592
      ],
      [
        "Ġteaspoon",
        -9.788436270071198
      ],
      [
        "Ġaffordable",
        -9.789340993174596
      ],
      [
        "Ġcapture",
        -9.789946100454902
      ],
      [
        "Ġprioritize",
        -9.790086543662849
      ],
      [
        "Ġstreet",
        -9.79024116500817
      ],
      [
        "families",
        -9.790749385395852
      ],
      [
        "Ġlayer",
        -9.791139061295246
      ],
      [
        "Ġdate",
        -9.79116765645223
      ],
      [
        "Ġpowers",
        -9.7916324074004
      ],
      [
        "continued",
        -9.79184434452007
      ],
      [
        "Ġexpress",
        -9.792179128184648
      ],
      [
        "Ġpush",
        -9.792323457908347
      ],
      [
        "significance",
        -9.79239566509362
      ],
      [
        "Ġlater",
        -9.79373067349284
      ],
      [
        "Ġgrowing",
        -9.793873270929012
      ],
      [
        "Ġclick",
        -9.794251485760284
      ],
      [
        "Ġchance",
        -9.795296262725511
      ],
      [
        "Ġconvey",
        -9.795706465782189
      ],
      [
        "Ġrise",
        -9.796028466138576
      ],
      [
        "Ġpatient",
        -9.79672946190006
      ],
      [
        "Ġstarting",
        -9.798703141976931
      ],
      [
        "Ġleads",
        -9.79984062259551
      ],
      [
        "Ġfacebook",
        -9.799868273404718
      ],
      [
        "absolutel",
        -9.801411448627972
      ],
      [
        "Ġapple",
        -9.801753670815682
      ],
      [
        "satisfaction",
        -9.803224273612368
      ],
      [
        "Ġready",
        -9.804413748977089
      ],
      [
        "Ġtechnique",
        -9.80525308019507
      ],
      [
        "Ġfire",
        -9.805425231883223
      ],
      [
        "Ġsum",
        -9.805722628718838
      ],
      [
        "competition",
        -9.805912008714838
      ],
      [
        "definitely",
        -9.805939995723977
      ],
      [
        "Ġbright",
        -9.806394450184763
      ],
      [
        "parents",
        -9.806780039246386
      ],
      [
        "feelings",
        -9.807165618331627
      ],
      [
        "Ġprompt",
        -9.807779338039763
      ],
      [
        "Ġattack",
        -9.808432033370748
      ],
      [
        "playing",
        -9.809603317203376
      ],
      [
        "Ġcold",
        -9.810512669824185
      ],
      [
        "Ġeco",
        -9.81215929856578
      ],
      [
        "Ġsupply",
        -9.81385574672664
      ],
      [
        "changing",
        -9.815524276712074
      ],
      [
        "Ġupdated",
        -9.816170705587488
      ],
      [
        "Ġmiddle",
        -9.817198943207456
      ],
      [
        "Ġnegatives",
        -9.817502426212426
      ],
      [
        "century",
        -9.818279194546616
      ],
      [
        "Ġtaken",
        -9.81885672593566
      ],
      [
        "Ġlandscape",
        -9.819080935294354
      ],
      [
        "Ġpolicy",
        -9.819172606461882
      ],
      [
        "Ġstyles",
        -9.820220331650736
      ],
      [
        "rather",
        -9.820777215803528
      ],
      [
        "Ġdeal",
        -9.821366211550826
      ],
      [
        "Ġscript",
        -9.821607345144486
      ],
      [
        "Ġdiscuss",
        -9.8219917475347
      ],
      [
        "Ġschools",
        -9.824540553959094
      ],
      [
        "Ġatmosphere",
        -9.824579326611376
      ],
      [
        "Ġbasic",
        -9.824932380501323
      ],
      [
        "species",
        -9.825243020462777
      ],
      [
        "Ġmac",
        -9.825411381273687
      ],
      [
        "Ġensur",
        -9.8260243619203
      ],
      [
        "Ġblend",
        -9.826141308987626
      ],
      [
        "Ġforms",
        -9.826293271867856
      ],
      [
        "Ġco",
        -9.828219300578542
      ],
      [
        "Ġoriginal",
        -9.828629352867363
      ],
      [
        "Ġsign",
        -9.829101817027375
      ],
      [
        "Ġshown",
        -9.829542267245388
      ],
      [
        "Ġfit",
        -9.829823882362238
      ],
      [
        "Ġworkout",
        -9.829979123061712
      ],
      [
        "Ġinstance",
        -9.83000827839541
      ],
      [
        "Ġsports",
        -9.830092864999353
      ],
      [
        "Ġexpected",
        -9.830506178790213
      ],
      [
        "involves",
        -9.83076552215574
      ],
      [
        "Ġpartner",
        -9.832646444169916
      ],
      [
        "Ġroad",
        -9.833126581708362
      ],
      [
        "ĠĠĠĠĠĠĠĠĠĠĠĠĠĠĠ",
        -9.833551837764142
      ],
      [
        "Ġlatest",
        -9.834261890728335
      ],
      [
        "11",
        -9.835297415646284
      ],
      [
        "Ġcombine",
        -9.836112389617078
      ],
      [
        "exploring",
        -9.836964226884744
      ],
      [
        "Ġdesired",
        -9.837196947007197
      ],
      [
        "Ġheld",
        -9.837994192772555
      ],
      [
        ").\\",
        -9.839565458672563
      ],
      [
        "Ġdeath",
        -9.839729056992622
      ],
      [
        "Ġprivate",
        -9.840459027585664
      ],
      [
        "Ġblood",
        -9.840697248401494
      ],
      [
        "Ġfuel",
        -9.84529908732959
      ],
      [
        "ingredients",
        -9.84534930067552
      ],
      [
        "Ġclient",
        -9.846761110101184
      ],
      [
        "wanted",
        -9.847555649406754
      ],
      [
        "Ġsector",
        -9.847842072249088
      ],
      [
        "Ġdiet",
        -9.850408151787123
      ],
      [
        "Ġdevice",
        -9.850520555016963
      ],
      [
        "Ġstop",
        -9.850591143821289
      ],
      [
        "Ġtask",
        -9.850615777039884
      ],
      [
        "measures",
        -9.851544468820016
      ],
      [
        "Ġselect",
        -9.85214871648762
      ],
      [
        "Ġthough",
        -9.852475447122105
      ],
      [
        "Ġonto",
        -9.85293190477114
      ],
      [
        "Ġgift",
        -9.854175863712928
      ],
      [
        "Ġelectric",
        -9.855370942163043
      ],
      [
        "improved",
        -9.856100407235472
      ],
      [
        "Ġdiscovere",
        -9.8579116218261
      ],
      [
        "Ġeffect",
        -9.85819695945095
      ],
      [
        "Ġtechnical",
        -9.858411109708792
      ],
      [
        "spent",
        -9.8601060463933
      ],
      [
        "Ġoperations",
        -9.860191490028903
      ],
      [
        "Ġfront",
        -9.860867996042032
      ],
      [
        "Ġbelief",
        -9.860970909690996
      ],
      [
        "Ġaim",
        -9.861512671734124
      ],
      [
        "Ġreduced",
        -9.862727128278516
      ],
      [
        "Ġdetail",
        -9.862797897161158
      ],
      [
        "more",
        -9.864507152814802
      ],
      [
        "either",
        -9.865647194167384
      ],
      [
        "affected",
        -9.86709557474683
      ],
      [
        "Ġalice",
        -9.867877805683202
      ],
      [
        "Ġbelow",
        -9.869645655372636
      ],
      [
        "Ġperform",
        -9.870029936664729
      ],
      [
        "Ġprocesses",
        -9.87026884562205
      ],
      [
        "Ġengine",
        -9.871207481431073
      ],
      [
        "Ġpara",
        -9.87130647666668
      ],
      [
        "Ġsummer",
        -9.872202746670238
      ],
      [
        "Ġsouth",
        -9.872590570389445
      ],
      [
        "Ġpayment",
        -9.873000723510128
      ],
      [
        "Ġfigure",
        -9.87301245670276
      ],
      [
        "Ġprepare",
        -9.873030678483312
      ],
      [
        "Ġsky",
        -9.87477593745793
      ],
      [
        "Ġyoga",
        -9.87604369449378
      ],
      [
        "Ġfeet",
        -9.877314382979362
      ],
      [
        "accurate",
        -9.877900716008346
      ],
      [
        "Ġinterface",
        -9.878148978450296
      ],
      [
        "anyone",
        -9.878640949867288
      ],
      [
        "Ġ18",
        -9.879592571384745
      ],
      [
        "Ġobject",
        -9.880076340896268
      ],
      [
        "tracking",
        -9.881632295481015
      ],
      [
        "Ġblog",
        -9.881892627204216
      ],
      [
        "Ġpair",
        -9.882692266085144
      ],
      [
        "roasted",
        -9.884826037589054
      ],
      [
        "Ġconsidere",
        -9.885410436899816
      ],
      [
        "Ġrecipes",
        -9.885582917092066
      ],
      [
        "Ġpre",
        -9.885804720920136
      ],
      [
        "Ġstaff",
        -9.885817325580804
      ],
      [
        "Ġdiscover",
        -9.885864239021863
      ],
      [
        "Ġcontinues",
        -9.886277258337795
      ],
      [
        "Ġlength",
        -9.8884643954429
      ],
      [
        "airplane",
        -9.889628783473158
      ],
      [
        "Ġtablespoon",
        -9.890171843845604
      ],
      [
        "Ġdepartment",
        -9.890794583051573
      ],
      [
        "Ġaccessible",
        -9.89225592169244
      ],
      [
        "Ġdemonstrate",
        -9.893281980969707
      ],
      [
        "Ġbar",
        -9.89328813106032
      ],
      [
        "Ġpeace",
        -9.89361204226942
      ],
      [
        "costs",
        -9.893658725255724
      ],
      [
        "Ġcontainer",
        -9.893703890607163
      ],
      [
        "Ġcelebrate",
        -9.89427077677774
      ],
      [
        "presence",
        -9.894657470108772
      ],
      [
        "Ġworth",
        -9.897020827283496
      ],
      [
        "Ġdistance",
        -9.89741742942736
      ],
      [
        "Ġcancer",
        -9.897950504661615
      ],
      [
        "Ġmanager",
        -9.89889979775361
      ],
      [
        "Ġlaw",
        -9.899435767073932
      ],
      [
        "Ġimplementation",
        -9.899915511556143
      ],
      [
        "Ġbrain",
        -9.90079935359056
      ],
      [
        "Ġscreen",
        -9.901164253574269
      ],
      [
        "Ġcamera",
        -9.901292233114026
      ],
      [
        "Ġchannels",
        -9.903194861139209
      ],
      [
        "larger",
        -9.903323270602924
      ],
      [
        "Ġslice",
        -9.9041207747062
      ],
      [
        "Ġdesigns",
        -9.904248122015254
      ],
      [
        "Ġenable",
        -9.905715611881408
      ],
      [
        "Ġ100",
        -9.905723878969852
      ],
      [
        "Ġrock",
        -9.906510778660383
      ],
      [
        "painting",
        -9.906672764811733
      ],
      [
        "Ġemily",
        -9.906776412489918
      ],
      [
        "Ġplanet",
        -9.90886353277592
      ],
      [
        "49",
        -9.911271814068334
      ],
      [
        "deeper",
        -9.911626200529229
      ],
      [
        "Ġmeaning",
        -9.911918305067848
      ],
      [
        "Ġobjective",
        -9.912456458168531
      ],
      [
        "</",
        -9.915180433445755
      ],
      [
        "Ġsimply",
        -9.915273611275436
      ],
      [
        "Ġwalk",
        -9.916121771696238
      ],
      [
        "Ġusual",
        -9.916424675683029
      ],
      [
        "02",
        -9.918188704667829
      ],
      [
        "Ġparty",
        -9.918585947512046
      ],
      [
        "Ġorganic",
        -9.918831373884082
      ],
      [
        "effectivenes",
        -9.91921579730877
      ],
      [
        "Ġheavy",
        -9.919308129242475
      ],
      [
        "Ġtreat",
        -9.919499809241636
      ],
      [
        "Ġbeach",
        -9.920812658313444
      ],
      [
        "Ġmuscle",
        -9.92164784172086
      ],
      [
        "Ġachiev",
        -9.921784197490696
      ],
      [
        "Ġtopic",
        -9.92230637246435
      ],
      [
        ">",
        -9.922446569097708
      ],
      [
        "Ġparts",
        -9.925466617740025
      ],
      [
        "Ġconduct",
        -9.925786883064076
      ],
      [
        "sometime",
        -9.927026231597658
      ],
      [
        "Ġbegin",
        -9.927105773261388
      ],
      [
        "Ġsymbol",
        -9.929238008016236
      ],
      [
        "Ġartist",
        -9.929445144869575
      ],
      [
        "Ġtour",
        -9.930148074151903
      ],
      [
        "Ġdoor",
        -9.930675333104857
      ],
      [
        "Ġpour",
        -9.931088478016006
      ],
      [
        "Ġadapt",
        -9.932522593191909
      ],
      [
        "Ġturne",
        -9.932579613139282
      ],
      [
        "instructions",
        -9.932947194786106
      ],
      [
        "from",
        -9.933326106632704
      ],
      [
        "Ġdiverse",
        -9.934332218767382
      ],
      [
        "Ġlooke",
        -9.9344337691761
      ],
      [
        "Ġplays",
        -9.93828880368352
      ],
      [
        "Ġemphasize",
        -9.939421126730226
      ],
      [
        "Ġ11",
        -9.93945047353332
      ],
      [
        "nanother",
        -9.940003492479576
      ],
      [
        "Â°",
        -9.940043967364836
      ],
      [
        "exercises",
        -9.940184919472626
      ],
      [
        "Ġhimself",
        -9.940390070712656
      ],
      [
        "Ġguid",
        -9.940545082580496
      ],
      [
        "Ġoutdoor",
        -9.940994693313872
      ],
      [
        "Ġpot",
        -9.942217285844375
      ],
      [
        "workers",
        -9.942939814608955
      ],
      [
        "creativity",
        -9.943730521840862
      ],
      [
        "properties",
        -9.94380023997356
      ],
      [
        "campaigns",
        -9.945104002488002
      ],
      [
        "Ġseeds",
        -9.945445663803843
      ],
      [
        "Ġdepth",
        -9.94554470490104
      ],
      [
        "Ġhoney",
        -9.94661437652798
      ],
      [
        "Ġcreation",
        -9.947238459419491
      ],
      [
        "Ġwalking",
        -9.950098529094356
      ],
      [
        "heard",
        -9.950702048258526
      ],
      [
        "Ġadvice",
        -9.95195205910336
      ],
      [
        "Ġreceived",
        -9.95307901007856
      ],
      [
        "Ġletter",
        -9.95385958528382
      ],
      [
        "Ġle",
        -9.955717635923587
      ],
      [
        "Ġalmond",
        -9.956223017498594
      ],
      [
        "be",
        -9.956724870113025
      ],
      [
        "inspired",
        -9.95775545139218
      ],
      [
        "funding",
        -9.958089043226314
      ],
      [
        "Ġsmaller",
        -9.95842354176778
      ],
      [
        "Ġwall",
        -9.958528697471388
      ],
      [
        "Ġcognitive",
        -9.958792879787437
      ],
      [
        "Ġdream",
        -9.960032571048188
      ],
      [
        "Ġbrought",
        -9.960101216424349
      ],
      [
        "Ġmilitary",
        -9.962125787098872
      ],
      [
        "Ġfall",
        -9.964112237913977
      ],
      [
        "Ġseek",
        -9.964783285890356
      ],
      [
        "}",
        -9.964967712387825
      ],
      [
        "Ġmenu",
        -9.964987488424365
      ],
      [
        "Ġurban",
        -9.96507876941375
      ],
      [
        "compared",
        -9.96570352919736
      ],
      [
        "Ġfact",
        -9.966835118477832
      ],
      [
        "responsible",
        -9.96729694791915
      ],
      [
        "care",
        -9.968579684997213
      ],
      [
        "Ġtension",
        -9.968592012211143
      ],
      [
        "Ġparticipant",
        -9.968913211088314
      ],
      [
        "Ġprotagonist",
        -9.969295357888631
      ],
      [
        "cities",
        -9.969685200538157
      ],
      [
        "maintaining",
        -9.970404961392784
      ],
      [
        "Ġremain",
        -9.97201260164741
      ],
      [
        "consequence",
        -9.972081942699525
      ],
      [
        "Ġinstagram",
        -9.973980235717052
      ],
      [
        "Ġclub",
        -9.974053117917492
      ],
      [
        "Ġ<<",
        -9.97543721771848
      ],
      [
        "Ġgiving",
        -9.975886879971023
      ],
      [
        "Ġmember",
        -9.97637557068934
      ],
      [
        "Ġutilize",
        -9.977830155211668
      ],
      [
        "Ġfight",
        -9.978197670804953
      ],
      [
        "Ġpassion",
        -9.979212985407653
      ],
      [
        "Ġlines",
        -9.979589484226642
      ],
      [
        "Ġdelivery",
        -9.979667777754727
      ],
      [
        "Ġherbs",
        -9.980539950090598
      ],
      [
        "Ġbuildings",
        -9.980717134685076
      ],
      [
        "Ġeducational",
        -9.981196225919366
      ],
      [
        "Ġfacilit",
        -9.983519465541937
      ],
      [
        "log",
        -9.983633134858977
      ],
      [
        "Ġglass",
        -9.98667340161508
      ],
      [
        "Ġuna",
        -9.986916002241191
      ],
      [
        "Ġmother",
        -9.987286830934934
      ],
      [
        "Ġhotel",
        -9.987375159839749
      ],
      [
        "Ġnovel",
        -9.990076211053603
      ],
      [
        "sliced",
        -9.9902910997706
      ],
      [
        "Ġcomfort",
        -9.991460153305203
      ],
      [
        "Ġproperty",
        -9.99146773206873
      ],
      [
        "Ġpackage",
        -9.993109821291196
      ],
      [
        "Ġboost",
        -9.993294964858412
      ],
      [
        "Ġteams",
        -9.99519250802311
      ],
      [
        "Ġmodels",
        -9.995302052546975
      ],
      [
        "Ġindia",
        -9.995329721803683
      ],
      [
        "Ġplayer",
        -9.995359231537185
      ],
      [
        "Ġmood",
        -9.996099610205516
      ],
      [
        "Ġconcise",
        -9.996538371370011
      ],
      [
        "Ġnear",
        -9.996618485099871
      ],
      [
        "Ġslight",
        -9.996730856060148
      ],
      [
        "Ġsend",
        -9.997143110002815
      ],
      [
        "Ġrequest",
        -9.997568102411604
      ],
      [
        "Ġones",
        -9.99957331379582
      ],
      [
        "Ġimmediate",
        -10.0000948743777
      ],
      [
        "Ġnothing",
        -10.001668779266488
      ],
      [
        "Ġwatch",
        -10.0020219063119
      ],
      [
        "Ġcoconut",
        -10.004038943631071
      ],
      [
        "Ġdough",
        -10.00454997114146
      ],
      [
        "Ġbeef",
        -10.005735876172867
      ],
      [
        "Ġjoy",
        -10.006827382839631
      ],
      [
        "://",
        -10.007808330941089
      ],
      [
        "Ġincome",
        -10.008275690799024
      ],
      [
        "tomatoe",
        -10.008454929685133
      ],
      [
        "Ġdatabase",
        -10.009676424593891
      ],
      [
        "Ġinternet",
        -10.009735254569446
      ],
      [
        "Ġshift",
        -10.010678571310898
      ],
      [
        "Ġmaintenance",
        -10.012820538900538
      ],
      [
        "grew",
        -10.012995891146216
      ],
      [
        "Ġ16",
        -10.01356949927745
      ],
      [
        "applications",
        -10.013897945691912
      ],
      [
        "Ġstarts",
        -10.01552046935402
      ],
      [
        "leaving",
        -10.016734814495443
      ],
      [
        "14",
        -10.01731225393246
      ],
      [
        "Ġcontext",
        -10.018348169627114
      ],
      [
        "insert",
        -10.019570061715152
      ],
      [
        "Ġflow",
        -10.02034208313646
      ],
      [
        "ahead",
        -10.021768262049417
      ],
      [
        "end",
        -10.022165349478444
      ],
      [
        "Ġconcept",
        -10.023159588865546
      ],
      [
        "Ġfabric",
        -10.02342560530331
      ],
      [
        "Ġclasse",
        -10.023771836287288
      ],
      [
        "directly",
        -10.024064181456442
      ],
      [
        "day",
        -10.02441097372942
      ],
      [
        "24",
        -10.026173293099932
      ],
      [
        "making",
        -10.026225247312915
      ],
      [
        "Ġpattern",
        -10.026504594139618
      ],
      [
        "Ġreligious",
        -10.027558448779743
      ],
      [
        "Ġlibrary",
        -10.028508735618662
      ],
      [
        "Ġformat",
        -10.029221686684089
      ],
      [
        "Ġinitial",
        -10.029393012541789
      ],
      [
        "Ġlate",
        -10.031164130637857
      ],
      [
        "Ġparticipate",
        -10.031807657161218
      ],
      [
        "Ġjournal",
        -10.031967794095744
      ],
      [
        "resilience",
        -10.032624296410855
      ],
      [
        "Ġcake",
        -10.033322879685151
      ],
      [
        "Ġprotection",
        -10.034299318764406
      ],
      [
        "Ġrecommended",
        -10.03459965911511
      ],
      [
        "finding",
        -10.03474282899968
      ],
      [
        "Ġdestination",
        -10.034897209597473
      ],
      [
        "nwhen",
        -10.035627112543676
      ],
      [
        "Ġideal",
        -10.035929536227888
      ],
      [
        "driving",
        -10.036042590125277
      ],
      [
        "Ġcells",
        -10.036697482012894
      ],
      [
        "âĢ¢",
        -10.036888535896002
      ],
      [
        "Ġmorning",
        -10.037055332544664
      ],
      [
        "Ġexpression",
        -10.03842143761586
      ],
      [
        "use",
        -10.03982031394198
      ],
      [
        "Ġfields",
        -10.040052307863432
      ],
      [
        "Ġautomation",
        -10.04024741081001
      ],
      [
        "Ġdescription",
        -10.041205388051631
      ],
      [
        "Ġintroduce",
        -10.041751741716643
      ],
      [
        "Ġsummarize",
        -10.041813650727022
      ],
      [
        "Ġmovie",
        -10.042399849405038
      ],
      [
        "Ġspend",
        -10.043489984882155
      ],
      [
        "pieces",
        -10.043729087980315
      ],
      [
        "almost",
        -10.043784403882128
      ],
      [
        "31",
        -10.045572292044024
      ],
      [
        "Ġcalm",
        -10.046696268904176
      ],
      [
        "Ġnorth",
        -10.047863318834468
      ],
      [
        "Ġgod",
        -10.048147395922175
      ],
      [
        "Ġbattle",
        -10.048339911696354
      ],
      [
        "Ġmanag",
        -10.04934046475933
      ],
      [
        "Ġscientific",
        -10.04955079502002
      ],
      [
        "Ġgeneration",
        -10.04967570172984
      ],
      [
        "Ġappealing",
        -10.05177983492883
      ],
      [
        "Ġbeans",
        -10.05227638298593
      ],
      [
        "metrics",
        -10.05274705463843
      ],
      [
        "Ġfrench",
        -10.052997280648473
      ],
      [
        "Ġcustom",
        -10.05309685807801
      ],
      [
        "Ġtwist",
        -10.053425214285973
      ],
      [
        "Ġthank",
        -10.053653843890087
      ],
      [
        "memories",
        -10.05413305925966
      ],
      [
        "Ġchain",
        -10.054771969467
      ],
      [
        "sensory",
        -10.054800570866266
      ],
      [
        "Ġwood",
        -10.055528322000498
      ],
      [
        "Ġinstall",
        -10.057003164427703
      ],
      [
        "Ġsit",
        -10.057411245014276
      ],
      [
        "loved",
        -10.057816827540648
      ],
      [
        "thank",
        -10.058836003694909
      ],
      [
        "Ġcoming",
        -10.058953369326288
      ],
      [
        "Ġloop",
        -10.05910325370827
      ],
      [
        "Ġintelligence",
        -10.05931315138366
      ],
      [
        "Ġpoetry",
        -10.059330404957976
      ],
      [
        "Ġdrink",
        -10.059334204344609
      ],
      [
        "Ġdanger",
        -10.060008924345851
      ],
      [
        "Ġprimary",
        -10.060268550314191
      ],
      [
        "Ġtheme",
        -10.060490547630078
      ],
      [
        "pricing",
        -10.061382489430478
      ],
      [
        "numerou",
        -10.061940139060598
      ],
      [
        "Ġsymptom",
        -10.062560649027995
      ],
      [
        "Ġexpand",
        -10.06332931436171
      ],
      [
        "therefore",
        -10.063742842909852
      ],
      [
        "Ġaverage",
        -10.066408115901208
      ],
      [
        "âĢľ",
        -10.066627108198952
      ],
      [
        "Ġeggs",
        -10.0667591241011
      ],
      [
        "vary",
        -10.06711500338589
      ],
      [
        ",âĢĿ",
        -10.067795659021195
      ],
      [
        "Ġworkshop",
        -10.068259756643023
      ],
      [
        "potatoes",
        -10.069208860961108
      ],
      [
        "Ġhidden",
        -10.06927511861518
      ],
      [
        "Ġsecret",
        -10.069883759555234
      ],
      [
        "Ġpanel",
        -10.070972111522698
      ],
      [
        "\\\"\\",
        -10.071204257004228
      ],
      [
        "Ġreviews",
        -10.071689034852048
      ],
      [
        "usage",
        -10.072794078499172
      ],
      [
        "Ġlighting",
        -10.074759740918983
      ],
      [
        "ation",
        -10.07564913226826
      ],
      [
        "Ġwait",
        -10.075676267753558
      ],
      [
        "Ġpress",
        -10.076621405807058
      ],
      [
        "Ġuseful",
        -10.076808577412358
      ],
      [
        "readers",
        -10.077037054552394
      ],
      [
        "Ġdescribe",
        -10.077515513901428
      ],
      [
        "Ġapproache",
        -10.07797043010711
      ],
      [
        "Ġcalls",
        -10.07997013584543
      ],
      [
        "Ġgrateful",
        -10.080847109995547
      ],
      [
        "Ġeating",
        -10.081046660461952
      ],
      [
        "Ġchanged",
        -10.083291827486637
      ],
      [
        "Ġcentral",
        -10.084006225255306
      ],
      [
        "Ġbell",
        -10.084706914818428
      ],
      [
        "stronger",
        -10.086505276600557
      ],
      [
        "Ġcultures",
        -10.086972934815975
      ],
      [
        "Ġnamed",
        -10.088399458379934
      ],
      [
        "Ġmonth",
        -10.08856473899439
      ],
      [
        "man",
        -10.088835105589226
      ],
      [
        "Ġexpertise",
        -10.089546161270096
      ],
      [
        "slowly",
        -10.089719770930392
      ],
      [
        "Ġpages",
        -10.089736979263868
      ],
      [
        "hey",
        -10.09051179805606
      ],
      [
        "Ġyork",
        -10.091424750522815
      ],
      [
        "Ġspirit",
        -10.09177353822136
      ],
      [
        "Ġloyalty",
        -10.093071688375971
      ],
      [
        "Ġmeals",
        -10.093738048851808
      ],
      [
        "Ġfarmers",
        -10.094210195264042
      ],
      [
        "Ġkitchen",
        -10.094938051879083
      ],
      [
        "stunning",
        -10.096295427171915
      ],
      [
        "Ġdynamic",
        -10.097084576046898
      ],
      [
        "()",
        -10.099584508161978
      ],
      [
        "Ġhost",
        -10.099605157857908
      ],
      [
        "Ġintricate",
        -10.100878145143202
      ],
      [
        "Ġrecord",
        -10.100937897903272
      ],
      [
        "Ġeventual",
        -10.101798589786892
      ],
      [
        "Ġsessions",
        -10.102232783679062
      ],
      [
        "date",
        -10.1022805879254
      ],
      [
        "Ġleadership",
        -10.102639307364573
      ],
      [
        "Ġcompetitive",
        -10.102650984932335
      ],
      [
        "Ġtransfer",
        -10.103841734067007
      ],
      [
        ">>",
        -10.104684639279206
      ],
      [
        "Ġfactor",
        -10.10514801913943
      ],
      [
        "Ġspot",
        -10.105873857429684
      ],
      [
        "please",
        -10.107874789941238
      ],
      [
        "Ġexisting",
        -10.108020710234378
      ],
      [
        "assistance",
        -10.108552087234628
      ],
      [
        "filling",
        -10.109529513934076
      ],
      [
        "Ġcourses",
        -10.10979981489696
      ],
      [
        "Ġ25",
        -10.110736100179448
      ],
      [
        "read",
        -10.111442772835098
      ],
      [
        "Ġapps",
        -10.111446724156671
      ],
      [
        "Ġamerica",
        -10.111662764944118
      ],
      [
        "Ġdeliver",
        -10.111880478535932
      ],
      [
        "served",
        -10.112280527507467
      ],
      [
        "Ġclothing",
        -10.112920108022836
      ],
      [
        "Ġdice",
        -10.113479921262789
      ],
      [
        "Ġfirm",
        -10.113621009494397
      ],
      [
        "Ġnarrative",
        -10.113652819653131
      ],
      [
        "Ġdirect",
        -10.114310071828069
      ],
      [
        "Ġcross",
        -10.114317509985977
      ],
      [
        "Ġsorted",
        -10.118572314123304
      ],
      [
        "Ġprofile",
        -10.11917040200816
      ],
      [
        "year",
        -10.119372874461748
      ],
      [
        "Ġtalk",
        -10.120676383364838
      ],
      [
        "Ġjoin",
        -10.121533383595864
      ],
      [
        "Ġchina",
        -10.123103482542318
      ],
      [
        "Ġinteract",
        -10.123413205917124
      ],
      [
        "Ġsurvive",
        -10.125310385132774
      ],
      [
        "Ġforget",
        -10.125952449704126
      ],
      [
        "Ġinspire",
        -10.126096344978292
      ],
      [
        "agriculture",
        -10.126245060730549
      ],
      [
        "Ġbreathing",
        -10.126373671626787
      ],
      [
        "remains",
        -10.128697141519533
      ],
      [
        "Ġwonder",
        -10.129652883098895
      ],
      [
        "Ġfoundation",
        -10.129699133288868
      ],
      [
        "Ġcondition",
        -10.1297146246354
      ],
      [
        "Ġseem",
        -10.1312685509702
      ],
      [
        "Ġdescriptive",
        -10.13152735311596
      ],
      [
        "Ġgolden",
        -10.131739026398307
      ],
      [
        "Ġhospital",
        -10.134937900390018
      ],
      [
        "consumption",
        -10.13503888969141
      ],
      [
        "Ġmotivation",
        -10.135124004591976
      ],
      [
        "side",
        -10.135291011233008
      ],
      [
        "Ġshopping",
        -10.13560250676725
      ],
      [
        "Ġcomments",
        -10.135932007429798
      ],
      [
        "Ġreduction",
        -10.135963881101125
      ],
      [
        "lifestyle",
        -10.136472344621245
      ],
      [
        "Ġupdates",
        -10.136712319359964
      ],
      [
        "interests",
        -10.137133636204965
      ],
      [
        "Ġteaching",
        -10.137249417324576
      ],
      [
        "Ġbrands",
        -10.13728197349906
      ],
      [
        "Ġsettings",
        -10.139054996481756
      ],
      [
        "Ġbake",
        -10.13945998321339
      ],
      [
        "researchers",
        -10.139702479282604
      ],
      [
        "Ġcreates",
        -10.139809295660823
      ],
      [
        "spices",
        -10.139916535623206
      ],
      [
        "Ġposts",
        -10.140048222850588
      ],
      [
        "Ġtrul",
        -10.141716433425474
      ],
      [
        "strugglin",
        -10.142856166719245
      ],
      [
        "Ġinstrument",
        -10.143235184197405
      ],
      [
        "monitoring",
        -10.144474271592207
      ],
      [
        "Ġexchange",
        -10.144706018137178
      ],
      [
        "Ġstatement",
        -10.145679202010005
      ],
      [
        "avocado",
        -10.146184492892806
      ],
      [
        "Ġseparate",
        -10.146891281875996
      ],
      [
        "Ġadventure",
        -10.1471099143341
      ],
      [
        "Ġbox",
        -10.149995497039198
      ],
      [
        "Ġsurvey",
        -10.15067549183929
      ],
      [
        "Ġrestaurants",
        -10.15277922608271
      ],
      [
        "cleaning",
        -10.153172041189418
      ],
      [
        "Ġgave",
        -10.153218022583314
      ],
      [
        "Ġdetermined",
        -10.153883058353571
      ],
      [
        "reliable",
        -10.15532816298795
      ],
      [
        "commitment",
        -10.15595393612056
      ],
      [
        "my",
        -10.156366057125355
      ],
      [
        "Ġtax",
        -10.156628213236136
      ],
      [
        "rely",
        -10.15669891623146
      ],
      [
        "passed",
        -10.15735259298202
      ],
      [
        "Ġindian",
        -10.157379122921588
      ],
      [
        "heritage",
        -10.15782467411018
      ],
      [
        "stood",
        -10.15793841085484
      ],
      [
        "Ġlink",
        -10.158301871394324
      ],
      [
        "Ġplaces",
        -10.158522305149509
      ],
      [
        "Ġbuy",
        -10.158661359049194
      ],
      [
        "Ġpresentation",
        -10.15886360133861
      ],
      [
        "```",
        -10.158956689575689
      ],
      [
        "Ġjobs",
        -10.159579150510313
      ],
      [
        "uff",
        -10.160361418042244
      ],
      [
        "Ġalex",
        -10.160970260158171
      ],
      [
        "Ġlistening",
        -10.16186204573237
      ],
      [
        "Ġimager",
        -10.162651633388217
      ],
      [
        "Ġoffere",
        -10.1628102121685
      ],
      [
        "Ġmagic",
        -10.163171624436362
      ],
      [
        "Ġha",
        -10.16384665602826
      ],
      [
        "Ġnutrient",
        -10.16559349670066
      ],
      [
        "tself",
        -10.16568117037386
      ],
      [
        "Ġserver",
        -10.16679723616972
      ],
      [
        "nconclusion",
        -10.167208376083249
      ],
      [
        "electricity",
        -10.168567372026253
      ],
      [
        "Ġdescriptions",
        -10.168683882392305
      ],
      [
        "Ġ14",
        -10.168986368045214
      ],
      [
        "Ġcontrast",
        -10.169534180658928
      ],
      [
        "Ġbreaks",
        -10.169640884872722
      ],
      [
        "Ġmanufacturing",
        -10.170495087004806
      ],
      [
        "Ġvision",
        -10.172658739795358
      ],
      [
        "Ġliterature",
        -10.172748527490114
      ],
      [
        "Ġdoesn",
        -10.173392947744048
      ],
      [
        "Ġemerge",
        -10.174104295320346
      ],
      [
        "Ġ50",
        -10.17489626908353
      ],
      [
        "Ġcollaborate",
        -10.17537935617007
      ],
      [
        "Ġconsumers",
        -10.175426289066811
      ],
      [
        "decided",
        -10.175447673332547
      ],
      [
        "excited",
        -10.17878745091563
      ],
      [
        "Ġvariation",
        -10.180374027385168
      ],
      [
        "Ġwear",
        -10.181156030663953
      ],
      [
        "Ġrace",
        -10.181273711280143
      ],
      [
        "@",
        -10.182328291326726
      ],
      [
        "topics",
        -10.18290002396121
      ],
      [
        "data",
        -10.184318993454212
      ],
      [
        "Ġphotos",
        -10.184450386579346
      ],
      [
        "Ġcalculate",
        -10.18451761132217
      ],
      [
        "Ġsquare",
        -10.1857745345331
      ],
      [
        "Ġnode",
        -10.185925680619857
      ],
      [
        "Ġstatus",
        -10.18738838904802
      ],
      [
        "Ġcard",
        -10.187515346184536
      ],
      [
        "Ġsudden",
        -10.188068181941356
      ],
      [
        "Ġwinter",
        -10.19177892915013
      ],
      [
        "Ġpaint",
        -10.193097971428363
      ],
      [
        "Ġdeveloper",
        -10.193403304618654
      ],
      [
        "Ġsets",
        -10.19405420006419
      ],
      [
        "Ġegg",
        -10.19416620069782
      ],
      [
        "Ġsix",
        -10.194261178084334
      ],
      [
        "input",
        -10.194284591184818
      ],
      [
        "25",
        -10.19429112062543
      ],
      [
        "Ġnews",
        -10.195169009697707
      ],
      [
        "she",
        -10.196071962873688
      ],
      [
        "resistance",
        -10.196373144819276
      ],
      [
        "homemade",
        -10.19652308321843
      ],
      [
        "Ġpoems",
        -10.196629501849229
      ],
      [
        "Ġcredit",
        -10.19669096844948
      ],
      [
        "Ġevaluate",
        -10.197158765547574
      ],
      [
        "Ġmechanism",
        -10.19718183105947
      ],
      [
        "Ġfather",
        -10.19769846420512
      ],
      [
        "Ġboil",
        -10.197725185645185
      ],
      [
        "Ġengineering",
        -10.197884871741062
      ],
      [
        "string",
        -10.198373807776628
      ],
      [
        "Ġviews",
        -10.19848797092266
      ],
      [
        "Ġnuts",
        -10.199037917174918
      ],
      [
        "dressing",
        -10.200327211335768
      ],
      [
        "Ġedge",
        -10.20052703281721
      ],
      [
        "Ġstrange",
        -10.20088148653086
      ],
      [
        "Ġfascinating",
        -10.20185476896378
      ],
      [
        "commerce",
        -10.202462376452557
      ],
      [
        "Ġextract",
        -10.202666416133985
      ],
      [
        "Ġuniverse",
        -10.203283581090345
      ],
      [
        "Ġgluten",
        -10.2033890730627
      ],
      [
        "Ġgold",
        -10.20414058982977
      ],
      [
        "Ġhit",
        -10.204755345261963
      ],
      [
        "asked",
        -10.205088867108453
      ],
      [
        "Ġintegration",
        -10.205699028809152
      ],
      [
        "Ġapi",
        -10.206074540777047
      ],
      [
        "Ġcapabilit",
        -10.206523475414812
      ],
      [
        "Ġremind",
        -10.207373159534797
      ],
      [
        "Ġfill",
        -10.20762575571277
      ],
      [
        "Ġquite",
        -10.208357694964295
      ],
      [
        "Ġ13",
        -10.20945209076769
      ],
      [
        "Ġfiber",
        -10.209531271974852
      ],
      [
        "Ġprocessing",
        -10.210813608136062
      ],
      [
        "Ġsheet",
        -10.210941397068115
      ],
      [
        "stability",
        -10.21094487900155
      ],
      [
        "suitable",
        -10.211132319016166
      ],
      [
        "explain",
        -10.211260291040515
      ],
      [
        "Ġsides",
        -10.211329424193178
      ],
      [
        "Ġspeak",
        -10.211867038683756
      ],
      [
        "Ġrudra",
        -10.2123339149198
      ],
      [
        "dried",
        -10.212474093959491
      ],
      [
        "Ġsurround",
        -10.212655732181451
      ],
      [
        "Ġcount",
        -10.213909042874231
      ],
      [
        "Ġtwitter",
        -10.214414770652755
      ],
      [
        "Ġmark",
        -10.215850899889496
      ],
      [
        "carrot",
        -10.216009988270722
      ],
      [
        "motivated",
        -10.217298125729071
      ],
      [
        "Ġcompare",
        -10.21755249321558
      ],
      [
        "Ġbottom",
        -10.217795696192306
      ],
      [
        "Ġeurope",
        -10.218568196697802
      ],
      [
        "cannot",
        -10.219486899582892
      ],
      [
        "contemporary",
        -10.220155255272273
      ],
      [
        "expectation",
        -10.220492098103168
      ],
      [
        "Ġvolunteer",
        -10.221058190635734
      ],
      [
        "Ġkids",
        -10.22167176336749
      ],
      [
        "Ġwalls",
        -10.222418961098636
      ],
      [
        "Ġsignal",
        -10.222452336458897
      ],
      [
        "Ġrecognition",
        -10.222526151992296
      ],
      [
        "enter",
        -10.22360963547544
      ],
      [
        "Ġpoor",
        -10.22483423556592
      ],
      [
        "Ġconfidence",
        -10.226323463674523
      ],
      [
        "Ġraise",
        -10.22696115020609
      ],
      [
        "Ġtsp",
        -10.227673884609542
      ],
      [
        "Ġvegetarian",
        -10.228072879534642
      ],
      [
        "Ġspending",
        -10.228195570560231
      ],
      [
        "exciting",
        -10.229817708979605
      ],
      [
        "à¤¿",
        -10.230215089498568
      ],
      [
        "grilled",
        -10.23081893137904
      ],
      [
        "resulting",
        -10.230832138175012
      ],
      [
        "13",
        -10.23198688863895
      ],
      [
        "Ġreason",
        -10.232346758169658
      ],
      [
        "statistics",
        -10.233960487986538
      ],
      [
        "Ġcomplement",
        -10.235627326575123
      ],
      [
        "Ġbeginning",
        -10.236084201027763
      ],
      [
        "currently",
        -10.236356293467807
      ],
      [
        "Ġapart",
        -10.23681074197254
      ],
      [
        "Ġplot",
        -10.236972996740858
      ],
      [
        "Ġband",
        -10.237282627794803
      ],
      [
        "skillet",
        -10.238378746719691
      ],
      [
        "Ġbank",
        -10.239053486332034
      ],
      [
        "for",
        -10.24011572320409
      ],
      [
        "Ġseeking",
        -10.24022223623523
      ],
      [
        "Ġelectronic",
        -10.243009086528932
      ],
      [
        "Ġreports",
        -10.243034803206625
      ],
      [
        "Ġshop",
        -10.244827169251232
      ],
      [
        "Ġconference",
        -10.245263751527023
      ],
      [
        "Ġbutton",
        -10.245631928978618
      ],
      [
        "16",
        -10.245925369695197
      ],
      [
        "Ġcon",
        -10.2461250027495
      ],
      [
        "Ġdangerous",
        -10.24673751259902
      ],
      [
        "Ġpublished",
        -10.247010239586093
      ],
      [
        "Ġbinary",
        -10.24912814310703
      ],
      [
        "Ġestablishe",
        -10.249391327792296
      ],
      [
        "although",
        -10.24941707260272
      ],
      [
        "relaxation",
        -10.249544138277397
      ],
      [
        "Ġachievement",
        -10.250575617149549
      ],
      [
        "Ġroll",
        -10.250745440984238
      ],
      [
        "Ġwin",
        -10.25166654456828
      ],
      [
        "Ġmixed",
        -10.252500228069389
      ],
      [
        "targeted",
        -10.25264908779466
      ],
      [
        "Ġbold",
        -10.252922550026693
      ],
      [
        "Ġescape",
        -10.252965979552473
      ],
      [
        "facing",
        -10.254287511329
      ],
      [
        "//",
        -10.255382315418744
      ],
      [
        "Ġpresident",
        -10.256217982977873
      ],
      [
        "faster",
        -10.258047454493774
      ],
      [
        "traditions",
        -10.258171812972956
      ],
      [
        "regarding",
        -10.258332030394923
      ],
      [
        "one",
        -10.258772937585372
      ],
      [
        "Ġ19",
        -10.259194237106112
      ],
      [
        "Ġfair",
        -10.259244889722517
      ],
      [
        "Ġmax",
        -10.25979018205836
      ],
      [
        "Ġspiritual",
        -10.260246886775096
      ],
      [
        "vehicles",
        -10.261220176040297
      ],
      [
        "Ġcontains",
        -10.261876955898025
      ],
      [
        "Ġsnack",
        -10.262059599415842
      ],
      [
        "Ġlargest",
        -10.2622088047197
      ],
      [
        "Ġfollows",
        -10.262658619958358
      ],
      [
        "Ġrepeated",
        -10.263078311074018
      ],
      [
        "Ġembrace",
        -10.263285247697752
      ],
      [
        "Ġmass",
        -10.263509009795191
      ],
      [
        "standing",
        -10.263803070699336
      ],
      [
        "berries",
        -10.264064142281011
      ],
      [
        "Ġquiet",
        -10.264547455564395
      ],
      [
        "Ġattend",
        -10.264691926605096
      ],
      [
        "Ġcurious",
        -10.265378592818836
      ],
      [
        "poverty",
        -10.265876378901975
      ],
      [
        "list",
        -10.26605332875043
      ],
      [
        "Ġinfluencer",
        -10.266160046659843
      ],
      [
        "Ġstores",
        -10.266369218823309
      ],
      [
        "Ġbill",
        -10.267419844284834
      ],
      [
        "there",
        -10.267851385460348
      ],
      [
        "Ġpollution",
        -10.268009872750511
      ],
      [
        "100",
        -10.26812463571857
      ],
      [
        "Ġnoise",
        -10.268364291105632
      ],
      [
        "Ġconnected",
        -10.26898083869647
      ],
      [
        "packaging",
        -10.269849492605546
      ],
      [
        "18",
        -10.270306051422136
      ],
      [
        "Ġconfident",
        -10.270335489000589
      ],
      [
        "covered",
        -10.270378870971683
      ],
      [
        "Ġtomato",
        -10.270528626780193
      ],
      [
        "Ġskill",
        -10.270730696731956
      ],
      [
        "Ġtourism",
        -10.271079906748396
      ],
      [
        "expenses",
        -10.27128206229902
      ],
      [
        "Ġdistribution",
        -10.271622616466916
      ],
      [
        "Ġinformative",
        -10.274445690463466
      ],
      [
        "Ġchinese",
        -10.274728854867544
      ],
      [
        "Ġpasta",
        -10.274797834840594
      ],
      [
        "Ġtransport",
        -10.27491573579234
      ],
      [
        "Ġcouple",
        -10.274940885127304
      ],
      [
        "Ġstock",
        -10.27611330580888
      ],
      [
        "justice",
        -10.276240181553684
      ],
      [
        "Ġseasoning",
        -10.2765852012985
      ],
      [
        "Ġbrief",
        -10.278976689646129
      ],
      [
        "Ġfiles",
        -10.279233620292391
      ],
      [
        "Ġchili",
        -10.279381037827124
      ],
      [
        "Ġlily",
        -10.279666625466325
      ],
      [
        "Ġwaves",
        -10.279669734673057
      ],
      [
        "Ġstandard",
        -10.27982950374682
      ],
      [
        "organized",
        -10.279966505875423
      ],
      [
        "Ġthick",
        -10.28027980643554
      ],
      [
        "Ġprepared",
        -10.280424503376157
      ],
      [
        "Ġbike",
        -10.280699378429258
      ],
      [
        "à¤¤",
        -10.281214590326073
      ],
      [
        "alive",
        -10.281301252031362
      ],
      [
        "Ġmet",
        -10.281372804774076
      ],
      [
        "Ġpercent",
        -10.282217682395787
      ],
      [
        "Ġmessaging",
        -10.28331663632679
      ],
      [
        "Ġheight",
        -10.284090287695737
      ],
      [
        "file",
        -10.286199996693536
      ],
      [
        "Ġthin",
        -10.286551333648658
      ],
      [
        "Ġyogurt",
        -10.286849792271871
      ],
      [
        "Ġtold",
        -10.286991694548192
      ],
      [
        "Ġaddiction",
        -10.287236058083534
      ],
      [
        "Ġchurch",
        -10.28792495040411
      ],
      [
        "Ġteachers",
        -10.287976375228071
      ],
      [
        "Ġchronic",
        -10.288401494785722
      ],
      [
        "Ġinspiration",
        -10.288410455431428
      ],
      [
        "Ġvibrant",
        -10.288453520350224
      ],
      [
        "48",
        -10.288459313340397
      ],
      [
        "Ġconservation",
        -10.288494174860595
      ],
      [
        "Ġcaus",
        -10.28854471024544
      ],
      [
        "Ġ2018",
        -10.28871543526389
      ],
      [
        "Ġhappen",
        -10.289065525296444
      ],
      [
        "watching",
        -10.289761944862404
      ],
      [
        "Ġupdate",
        -10.289944686488376
      ],
      [
        "Ġvast",
        -10.290193640957876
      ],
      [
        "Ġadvance",
        -10.290224366837016
      ],
      [
        "Ġcell",
        -10.290419504923928
      ],
      [
        "Ġbreakfast",
        -10.290892250233885
      ],
      [
        "Ġvariable",
        -10.292170192548848
      ],
      [
        "Ġfoods",
        -10.292702339350576
      ],
      [
        "Ġbegins",
        -10.293295007152215
      ],
      [
        "Ġhabits",
        -10.293549906541122
      ],
      [
        "Ġincentive",
        -10.294327200167354
      ],
      [
        "Ġcommand",
        -10.2948804993117
      ],
      [
        "Ġtrail",
        -10.296127223186428
      ],
      [
        "Ġwebsites",
        -10.296367044945946
      ],
      [
        "Ġtender",
        -10.29677360590067
      ],
      [
        "Ġexpect",
        -10.297132330182944
      ],
      [
        "Ġsaves",
        -10.297534248079115
      ],
      [
        "Ġdead",
        -10.29877831492034
      ],
      [
        "handling",
        -10.299114212623842
      ],
      [
        "Ġcloser",
        -10.299335985447618
      ],
      [
        "Ġagree",
        -10.299876453880623
      ],
      [
        "nthere",
        -10.300705566378502
      ],
      [
        "Ġrepeat",
        -10.301438601951654
      ],
      [
        "Ġpolice",
        -10.30202283904249
      ],
      [
        "dedicated",
        -10.30283934198028
      ],
      [
        "workplace",
        -10.30498643891067
      ],
      [
        "Ġrespond",
        -10.305204307062713
      ],
      [
        "Ġunexpected",
        -10.305959113094756
      ],
      [
        "ment",
        -10.305996566642966
      ],
      [
        "influencers",
        -10.307237077318964
      ],
      [
        "followed",
        -10.308226354464104
      ],
      [
        "Ġ24",
        -10.30848278485084
      ],
      [
        "Ġdesire",
        -10.308516120862784
      ],
      [
        "Ġspeaker",
        -10.308658087176548
      ],
      [
        "Ġexact",
        -10.309025905905235
      ],
      [
        "investing",
        -10.309774827370726
      ],
      [
        "Ġdiscussion",
        -10.310517547253149
      ],
      [
        "Ġrural",
        -10.31078291291464
      ],
      [
        "Ġends",
        -10.310980556061589
      ],
      [
        "Ġcorn",
        -10.31177550616263
      ],
      [
        "www",
        -10.311881496148668
      ],
      [
        "Ġavailability",
        -10.31253626878979
      ],
      [
        "Ġtrain",
        -10.313024106108683
      ],
      [
        "Ġleaders",
        -10.313797114809145
      ],
      [
        "Ġmagical",
        -10.314463080120987
      ],
      [
        "Ġease",
        -10.315655937698187
      ],
      [
        "Ġdreams",
        -10.315743102685635
      ],
      [
        "Ġtitle",
        -10.316953772355127
      ],
      [
        "Ġlaunch",
        -10.317404221355872
      ],
      [
        "Ġpaid",
        -10.317459609029518
      ],
      [
        "Ġinvest",
        -10.3175891953886
      ],
      [
        "Ġassociation",
        -10.317791276262708
      ],
      [
        "Ġbirds",
        -10.318605689128312
      ],
      [
        "ĠâĢĶ",
        -10.318780889251874
      ],
      [
        "Ġlisten",
        -10.319206140225496
      ],
      [
        "Ġleader",
        -10.320379329985215
      ],
      [
        "Ġresolution",
        -10.320503401720332
      ],
      [
        "related",
        -10.321704461764163
      ],
      [
        "Ġchemical",
        -10.321706545500748
      ],
      [
        "Ġgather",
        -10.32183047019285
      ],
      [
        "style",
        -10.32204484185826
      ],
      [
        "residents",
        -10.32321220216264
      ],
      [
        "Ġfollowers",
        -10.323464434728868
      ],
      [
        "Ġstick",
        -10.323529974789858
      ],
      [
        "word",
        -10.324134888317769
      ],
      [
        "Ġcomponents",
        -10.324152338668885
      ],
      [
        "Ġroot",
        -10.324166027109849
      ],
      [
        "Ġshot",
        -10.32490429914498
      ],
      [
        "Ġvital",
        -10.325937509197274
      ],
      [
        "Ġcombined",
        -10.326392934380952
      ],
      [
        "Ġbroth",
        -10.327321515617069
      ],
      [
        "Ġsuit",
        -10.327469086806223
      ],
      [
        "Ġafrican",
        -10.327659179843415
      ],
      [
        "Ġnearby",
        -10.327826928271048
      ],
      [
        "Ġvolume",
        -10.32836523772876
      ],
      [
        "Ġprogramming",
        -10.328485586270714
      ],
      [
        "conducted",
        -10.328699511620943
      ],
      [
        "capacity",
        -10.329097692945496
      ],
      [
        "Ġnotes",
        -10.329559352660503
      ],
      [
        "intense",
        -10.330249625669936
      ],
      [
        "ongoing",
        -10.330703237318833
      ],
      [
        "Ġvinegar",
        -10.331284772994492
      ],
      [
        "Ġscent",
        -10.33222614143074
      ],
      [
        "Ġrain",
        -10.332466608786566
      ],
      [
        "recovery",
        -10.332531234657514
      ],
      [
        "exposure",
        -10.332585047546235
      ],
      [
        "Ġbecom",
        -10.332977347307413
      ],
      [
        "Ġsort",
        -10.333910932258467
      ],
      [
        "Ġtransition",
        -10.334167701744096
      ],
      [
        "Ġresource",
        -10.336018625155704
      ],
      [
        "continuous",
        -10.336177217743565
      ],
      [
        "Ġequal",
        -10.336760095222967
      ],
      [
        "illness",
        -10.337645512827017
      ],
      [
        "Ġmetal",
        -10.337869609295351
      ],
      [
        "Ġpet",
        -10.338556308893407
      ],
      [
        "choosing",
        -10.33923230362017
      ],
      [
        "Ġcatch",
        -10.339326723388314
      ],
      [
        "Ġemma",
        -10.339741563065138
      ],
      [
        "income",
        -10.341614603571475
      ],
      [
        "taught",
        -10.341734643735752
      ],
      [
        "\\\",",
        -10.34177165513503
      ],
      [
        "Ġdisaster",
        -10.342165800352332
      ],
      [
        "Ġregard",
        -10.34320683516064
      ],
      [
        "2017",
        -10.34363004022992
      ],
      [
        "Ġstakeholder",
        -10.34434488573226
      ],
      [
        "introduction",
        -10.344425090264568
      ],
      [
        "given",
        -10.345083847920373
      ],
      [
        "Ġar",
        -10.345251973593054
      ],
      [
        "Ġpop",
        -10.34569254354487
      ],
      [
        "Ġjapanese",
        -10.345823323049393
      ],
      [
        "objects",
        -10.3459427927603
      ],
      [
        "Ġempty",
        -10.346183715570648
      ],
      [
        "Ġgentle",
        -10.346701369082764
      ],
      [
        "limitation",
        -10.34726607448842
      ],
      [
        "Ġdisorders",
        -10.347856537049218
      ],
      [
        "Ġsmell",
        -10.348438299589295
      ],
      [
        "Ġmedicine",
        -10.348444278507497
      ],
      [
        "0131",
        -10.349491456067646
      ],
      [
        "Ġdis",
        -10.349511091680874
      ],
      [
        "Ġagency",
        -10.34978771627568
      ],
      [
        "engaged",
        -10.349906354799034
      ],
      [
        "informed",
        -10.351261881419338
      ],
      [
        "decisions",
        -10.352036837033046
      ],
      [
        "Ġwest",
        -10.352944536026731
      ],
      [
        "Ġcore",
        -10.353106925231083
      ],
      [
        "Ġinstruction",
        -10.353246196096649
      ],
      [
        "Ġwellness",
        -10.353803493805286
      ],
      [
        "Ġaward",
        -10.353986645554588
      ],
      [
        "Ġincredible",
        -10.354806279382668
      ],
      [
        "3002",
        -10.356232851169136
      ],
      [
        "Ġpizza",
        -10.35719364376934
      ],
      [
        "Ġfailure",
        -10.357310143324352
      ],
      [
        "):\\",
        -10.357430569449706
      ],
      [
        "Ġcrust",
        -10.357439966392832
      ],
      [
        "Ġoutline",
        -10.357478115218774
      ],
      [
        "colleague",
        -10.357695331789326
      ],
      [
        "Ġtalent",
        -10.35773871795755
      ],
      [
        "bbf",
        -10.357942178374769
      ],
      [
        "Ġselection",
        -10.35903812934059
      ],
      [
        "Ġadopt",
        -10.359130575013
      ],
      [
        "Ġimpressive",
        -10.359552535257066
      ],
      [
        "Ġcolorful",
        -10.359945889741292
      ],
      [
        "Ġamazon",
        -10.360646290012156
      ],
      [
        "Ġbeat",
        -10.36121925530034
      ],
      [
        "chapter",
        -10.363277226320212
      ],
      [
        "moreover",
        -10.363689952644648
      ],
      [
        "earlie",
        -10.364105682170871
      ],
      [
        "guests",
        -10.364883315278162
      ],
      [
        "Ġwalke",
        -10.366406081830124
      ],
      [
        "Ġrecognize",
        -10.366733876240623
      ],
      [
        "Ġphoto",
        -10.367804161757787
      ],
      [
        "spicy",
        -10.368071765264542
      ],
      [
        "Ġframework",
        -10.369322563942616
      ],
      [
        "Ġlegal",
        -10.370757678544177
      ],
      [
        "Ġexpert",
        -10.371146505344347
      ],
      [
        "advancements",
        -10.371770190602463
      ],
      [
        "Ġarts",
        -10.372533684567822
      ],
      [
        "Ġforever",
        -10.374316075460998
      ],
      [
        "Ġrule",
        -10.376649218307998
      ],
      [
        "increasingly",
        -10.37944358513793
      ],
      [
        "Ġdel",
        -10.380697268629188
      ],
      [
        "Ġencounter",
        -10.381256021103026
      ],
      [
        "Ġgradual",
        -10.381385003621102
      ],
      [
        "Ġflexibilit",
        -10.381389755488682
      ],
      [
        "me",
        -10.381421277200824
      ],
      [
        "Ġfat",
        -10.381958391804538
      ],
      [
        "Ġinsight",
        -10.382212075941824
      ],
      [
        "Ġconnections",
        -10.382460908950408
      ],
      [
        "Ġmoves",
        -10.383691993405956
      ],
      [
        "Ġhousing",
        -10.3847073569493
      ],
      [
        "Ġscheme",
        -10.384741432523342
      ],
      [
        "âĢĶ",
        -10.384942107143132
      ],
      [
        "Ġoccur",
        -10.385670108685282
      ],
      [
        "Ġinteger",
        -10.386202806929816
      ],
      [
        "Ġblock",
        -10.38660011797758
      ],
      [
        "Ġbarrier",
        -10.387499685646029
      ],
      [
        "Ġsprinkle",
        -10.387820580198897
      ],
      [
        "Ġalign",
        -10.38787757822784
      ],
      [
        "Ġnative",
        -10.388025436176887
      ],
      [
        "competitor",
        -10.38803050712384
      ],
      [
        "creamy",
        -10.389638304084418
      ],
      [
        "01",
        -10.38979033230546
      ],
      [
        "Ġdirection",
        -10.390737546792923
      ],
      [
        "Ġexpensive",
        -10.39190254315073
      ],
      [
        "Ġformer",
        -10.391950244462295
      ],
      [
        "olving",
        -10.392318812043786
      ],
      [
        "Ġwrong",
        -10.392449934832362
      ],
      [
        "Ġtight",
        -10.392791577902983
      ],
      [
        "Ġwrap",
        -10.393612159720018
      ],
      [
        "empire",
        -10.395170867878123
      ],
      [
        "Ġstars",
        -10.395406866113404
      ],
      [
        "Ġconquer",
        -10.395801981383975
      ],
      [
        "Ġfloor",
        -10.39580653215124
      ],
      [
        "Ġanalyz",
        -10.395976671897827
      ],
      [
        "Ġstation",
        -10.396196356646128
      ],
      [
        "these",
        -10.396304492518617
      ],
      [
        "Ġfinance",
        -10.396347508355309
      ],
      [
        "Ġmusical",
        -10.396712521520085
      ],
      [
        "personality",
        -10.396886693926003
      ],
      [
        "Ġprefer",
        -10.397001754998488
      ],
      [
        "Ġinterval",
        -10.397412120904947
      ],
      [
        "actually",
        -10.39743975969158
      ],
      [
        "Ġpython",
        -10.39836403058008
      ],
      [
        "Ġdinner",
        -10.399009747156391
      ],
      [
        "Ġrespect",
        -10.39908307832092
      ],
      [
        "Ġacid",
        -10.399173946452391
      ],
      [
        "Ġinsurance",
        -10.399457976256157
      ],
      [
        "Ġalbum",
        -10.39963467401132
      ],
      [
        "empathy",
        -10.3997000358408
      ],
      [
        "Ġhour",
        -10.399712565308404
      ],
      [
        "Ġjapan",
        -10.399767482967848
      ],
      [
        "nint",
        -10.400036496659006
      ],
      [
        "Ġmarkets",
        -10.400508123101286
      ],
      [
        "bsp",
        -10.401796688704014
      ],
      [
        "Ġholding",
        -10.40236057105111
      ],
      [
        "Ġ2019",
        -10.40253794395987
      ],
      [
        "Ġbillion",
        -10.403150408771976
      ],
      [
        "Ġcustomize",
        -10.403223880578851
      ],
      [
        "Ġwilling",
        -10.40349859753116
      ],
      [
        "older",
        -10.403498609052004
      ],
      [
        "Ġdetect",
        -10.40407084837291
      ],
      [
        "Ġthorough",
        -10.404417020722663
      ],
      [
        "Ġreturns",
        -10.405495156693105
      ],
      [
        "wise",
        -10.40622889190144
      ],
      [
        "partnerships",
        -10.406794810065378
      ],
      [
        "Ġaudio",
        -10.40909185662878
      ],
      [
        "some",
        -10.40952371154034
      ],
      [
        "Ġheavi",
        -10.410697758117898
      ],
      [
        "Ġdraw",
        -10.411044255198007
      ],
      [
        "Ġintegrate",
        -10.411214400695906
      ],
      [
        "Ġcookies",
        -10.411232000337906
      ],
      [
        "Ġofficial",
        -10.411799500947374
      ],
      [
        "weeks",
        -10.41279743524172
      ],
      [
        "appearance",
        -10.412842907550887
      ],
      [
        "Ġrights",
        -10.41407286175546
      ],
      [
        "sitting",
        -10.41412801536356
      ],
      [
        "world",
        -10.415499342950698
      ],
      [
        "Ġconsumer",
        -10.4161650982097
      ],
      [
        "kept",
        -10.4168132190129
      ],
      [
        "mitigate",
        -10.41696079359141
      ],
      [
        "person",
        -10.41779726380247
      ],
      [
        "Ġroast",
        -10.418293630682808
      ],
      [
        "Ġconvert",
        -10.418834411760647
      ],
      [
        "Ġgoes",
        -10.41913560289914
      ],
      [
        "Ġreplace",
        -10.419378960801245
      ],
      [
        "Ġfine",
        -10.419596063247829
      ],
      [
        "Ġcourt",
        -10.420099672220218
      ],
      [
        "Ġpodcast",
        -10.421112568301616
      ],
      [
        "Ġhighlights",
        -10.421794582281963
      ],
      [
        "Ġextensive",
        -10.422118271336055
      ],
      [
        "speaking",
        -10.422232692402789
      ],
      [
        "Ġvillage",
        -10.423975262188716
      ],
      [
        "Ġpassword",
        -10.4243016447561
      ],
      [
        "Ġbag",
        -10.42579903814264
      ],
      [
        "Ġcoaching",
        -10.425951737939702
      ],
      [
        "Ġnote",
        -10.426205823395884
      ],
      [
        "Ġserious",
        -10.427099748160025
      ],
      [
        "Ġfoster",
        -10.427593291762022
      ],
      [
        "Ġfans",
        -10.428109838782696
      ],
      [
        "Ġbrush",
        -10.428179843669293
      ],
      [
        "binary",
        -10.428523327974066
      ],
      [
        "Ġstorm",
        -10.429156196306264
      ],
      [
        "Ġpor",
        -10.429282040379016
      ],
      [
        "Ġmanaged",
        -10.4302874918716
      ],
      [
        "Ġtough",
        -10.430758978368983
      ],
      [
        "line",
        -10.430855983177986
      ],
      [
        "Ġfilter",
        -10.43095306206134
      ],
      [
        "Ġimagine",
        -10.431408495071135
      ],
      [
        "Ġsmile",
        -10.43171530711452
      ],
      [
        "Ġround",
        -10.431956850198135
      ],
      [
        "099",
        -10.432687042952626
      ],
      [
        "reached",
        -10.432941335143814
      ],
      [
        "Ġcommercial",
        -10.433266487533732
      ],
      [
        "Ġfunctions",
        -10.43364924996168
      ],
      [
        "notable",
        -10.433874407225154
      ],
      [
        "scenario",
        -10.434012615824876
      ],
      [
        "Ġgreenhouse",
        -10.43604535339971
      ],
      [
        "Ġforeign",
        -10.436557215107216
      ],
      [
        "Ġcollect",
        -10.43757077615766
      ],
      [
        "Ġdessert",
        -10.43775012383422
      ],
      [
        "Ġlas",
        -10.438692590599636
      ],
      [
        "Ġrepair",
        -10.439101080689056
      ],
      [
        "Ġjames",
        -10.439869990707562
      ],
      [
        "Ġinner",
        -10.439943290958636
      ],
      [
        "nremember",
        -10.440512576781032
      ],
      [
        "Ġmince",
        -10.440993320044894
      ],
      [
        "Ġpossibilit",
        -10.441138654634242
      ],
      [
        "Ġquino",
        -10.442229167665229
      ],
      [
        "operate",
        -10.442325595748756
      ],
      [
        "Ġsupplie",
        -10.442458384726288
      ],
      [
        "Ġassist",
        -10.443538525313231
      ],
      [
        "Ġfund",
        -10.4436604054053
      ],
      [
        "Ġbritish",
        -10.44424811762472
      ],
      [
        "dialogue",
        -10.445214414303262
      ],
      [
        "Ġdetermination",
        -10.44580130864198
      ],
      [
        "Ġstandards",
        -10.44730507404074
      ],
      [
        "Ġeast",
        -10.448458629795844
      ],
      [
        "Ġspaces",
        -10.449081376093144
      ],
      [
        "new",
        -10.449142835956875
      ],
      [
        "adoption",
        -10.449167981920674
      ],
      [
        "23",
        -10.44955563723642
      ],
      [
        "Ġimmersive",
        -10.4500169982095
      ],
      [
        "Ġmaximum",
        -10.45073621913866
      ],
      [
        "Ġsongs",
        -10.45131578571635
      ],
      [
        "Ġanti",
        -10.451938262148316
      ],
      [
        "ization",
        -10.452073191477211
      ],
      [
        "size",
        -10.4525306745059
      ],
      [
        "get",
        -10.452642317761969
      ],
      [
        "guideline",
        -10.452884804070344
      ],
      [
        "Ġeuropean",
        -10.454203317440792
      ],
      [
        "Ġmeaningful",
        -10.454321656206464
      ],
      [
        "caught",
        -10.454393804322232
      ],
      [
        "retailer",
        -10.454533788785495
      ],
      [
        "Ġfinish",
        -10.456353525343406
      ],
      [
        "à¤ķ",
        -10.45688597156113
      ],
      [
        "Ġswitch",
        -10.457508680698758
      ],
      [
        "Ġkeywords",
        -10.457656907899784
      ],
      [
        "Ġrapid",
        -10.458260640981386
      ],
      [
        "Ġcounty",
        -10.45882725192201
      ],
      [
        "Ġplent",
        -10.459471062096462
      ],
      [
        "Ġwaits",
        -10.460390523075718
      ],
      [
        "Ġintroduction",
        -10.460519861393568
      ],
      [
        "hiking",
        -10.46121485160037
      ],
      [
        "attraction",
        -10.462099297087338
      ],
      [
        "Ġmindful",
        -10.462154801845395
      ],
      [
        "opening",
        -10.462382321191782
      ],
      [
        "Ġgirl",
        -10.462414854325027
      ],
      [
        "Ġgrand",
        -10.46250980354209
      ],
      [
        "encountered",
        -10.46258069187549
      ],
      [
        "capable",
        -10.463386403409944
      ],
      [
        "Ġwhisk",
        -10.463668781451204
      ],
      [
        "Ġstrategic",
        -10.465100455118954
      ],
      [
        "Ġcarry",
        -10.46580140416751
      ],
      [
        "Ġchips",
        -10.465810573714332
      ],
      [
        "Ġfootprint",
        -10.466898257944464
      ],
      [
        "Ġinternal",
        -10.468287532118442
      ],
      [
        "Ġflexible",
        -10.468850045958003
      ],
      [
        "Ġspice",
        -10.468968544722728
      ],
      [
        "Ġking",
        -10.469042858027606
      ],
      [
        "Ġstone",
        -10.471032221748516
      ],
      [
        "partnership",
        -10.471089375568532
      ],
      [
        "Ġcycle",
        -10.471353236814425
      ],
      [
        "Ġvanilla",
        -10.472056677973354
      ],
      [
        "Ġafrica",
        -10.473218709484964
      ],
      [
        "Ġshapes",
        -10.47335229357754
      ],
      [
        "Ġholiday",
        -10.474108475682678
      ],
      [
        "Ġbattery",
        -10.474528416071555
      ],
      [
        "Ġtactic",
        -10.475226634482574
      ],
      [
        "Ġcontain",
        -10.47547947869701
      ],
      [
        "Ġ==",
        -10.475752854635456
      ],
      [
        "Ġtemple",
        -10.475779781050626
      ],
      [
        "using",
        -10.47596347763374
      ],
      [
        "emergency",
        -10.478088881542176
      ],
      [
        "Ġceremon",
        -10.478246473611756
      ],
      [
        "Ġoptimization",
        -10.478603294922015
      ],
      [
        "Ġgives",
        -10.47900007785264
      ],
      [
        "excitement",
        -10.479138515092885
      ],
      [
        "cutting",
        -10.479431177281656
      ],
      [
        "Ġphrase",
        -10.4799682901748
      ],
      [
        "Ġdecline",
        -10.480180946639052
      ],
      [
        "Ġorange",
        -10.480714410469629
      ],
      [
        "Ġshelter",
        -10.481177411393226
      ],
      [
        "Ġtofu",
        -10.482064635265704
      ],
      [
        "smoothie",
        -10.482287922237152
      ],
      [
        "('",
        -10.482909337419
      ],
      [
        "Ġscore",
        -10.483620673109698
      ],
      [
        "all",
        -10.483638218789665
      ],
      [
        "Ġtransform",
        -10.483644537002602
      ],
      [
        "waiting",
        -10.483780003735216
      ],
      [
        "Ġfeatur",
        -10.483789888612815
      ],
      [
        "Ġbird",
        -10.483901884941544
      ],
      [
        "Ġmap",
        -10.484353707586846
      ],
      [
        "Ġdocument",
        -10.48764154667628
      ],
      [
        "Ġexplanation",
        -10.48766133571132
      ],
      [
        "pandemic",
        -10.488157454826329
      ],
      [
        "Ġhomes",
        -10.488413991985444
      ],
      [
        "Ġconversion",
        -10.48841503246363
      ],
      [
        "accuracy",
        -10.488432200961636
      ],
      [
        "Ġwindows",
        -10.48854932812335
      ],
      [
        "parties",
        -10.488582448305282
      ],
      [
        "blockchain",
        -10.488610035618391
      ],
      [
        "Ġgraphics",
        -10.488794514650843
      ],
      [
        "Ġencouraging",
        -10.489401479123677
      ],
      [
        "Ġdistrict",
        -10.490626825245824
      ],
      [
        "Ġitem",
        -10.490632258091043
      ],
      [
        "Ġsession",
        -10.490638595731925
      ],
      [
        "Ġpull",
        -10.491126720066864
      ],
      [
        "chorus",
        -10.491294618761051
      ],
      [
        "Ġrelative",
        -10.491604987581654
      ],
      [
        "Ġmulti",
        -10.492073761990111
      ],
      [
        "65",
        -10.492119437701676
      ],
      [
        "Ġcinnamon",
        -10.49272308042308
      ],
      [
        "num",
        -10.493663656636498
      ],
      [
        "Ġpartners",
        -10.49389630522753
      ],
      [
        "Ġbusy",
        -10.49421511284416
      ],
      [
        "error",
        -10.495880738098109
      ],
      [
        "sarah",
        -10.49694217157093
      ],
      [
        "Ġpsychological",
        -10.497108664626596
      ],
      [
        "artwork",
        -10.497724188692295
      ],
      [
        "are",
        -10.49878205060528
      ],
      [
        "Ġreputation",
        -10.499110056111055
      ],
      [
        "Ġinteraction",
        -10.49924808483243
      ],
      [
        "Ġfunctionalit",
        -10.49974811640924
      ],
      [
        "Ġpie",
        -10.499842431265543
      ],
      [
        "darkness",
        -10.499891355637155
      ],
      [
        "Ġrose",
        -10.500323899787295
      ],
      [
        "consistency",
        -10.500718625066296
      ],
      [
        "Ġlocations",
        -10.500915085921152
      ],
      [
        "Ġlogo",
        -10.501869373443594
      ],
      [
        "Ġsoul",
        -10.502128778373551
      ],
      [
        "Ġfont",
        -10.50219789673254
      ],
      [
        "int",
        -10.502209603360283
      ],
      [
        "Ġhabitat",
        -10.502728564343968
      ],
      [
        "Ġcars",
        -10.503157592952263
      ],
      [
        "committed",
        -10.503880110705126
      ],
      [
        "Ġgoods",
        -10.504561534073794
      ],
      [
        "Ġspring",
        -10.50494531712222
      ],
      [
        "Ġappear",
        -10.506141071810765
      ],
      [
        "Ġargument",
        -10.506399659416012
      ],
      [
        "Ġtechnological",
        -10.506538634750022
      ],
      [
        "reported",
        -10.50670425549288
      ],
      [
        "27",
        -10.50775407356366
      ],
      [
        "Ġspeech",
        -10.508013883490786
      ],
      [
        "Ġcompleted",
        -10.509011352515234
      ],
      [
        "Ġpotato",
        -10.509844672901714
      ],
      [
        "Ġsample",
        -10.510328244758409
      ],
      [
        "happened",
        -10.510818782702067
      ],
      [
        "spinac",
        -10.51293232145902
      ],
      [
        "Ġpass",
        -10.513057872481085
      ],
      [
        "childhood",
        -10.513575083131707
      ],
      [
        "à¤¨",
        -10.514192234520271
      ],
      [
        "Ġrealistic",
        -10.514589560996432
      ],
      [
        "Ġtruth",
        -10.515196306430605
      ],
      [
        "Ġgenerated",
        -10.515530756703432
      ],
      [
        "Ġminimize",
        -10.515760622282682
      ],
      [
        "freedom",
        -10.51610328440011
      ],
      [
        "Ġride",
        -10.517405648836895
      ],
      [
        "Ġseconds",
        -10.517467883526717
      ],
      [
        "wildlife",
        -10.51764872094062
      ],
      [
        "Ġaware",
        -10.518161216750304
      ],
      [
        "nafter",
        -10.518442134734014
      ],
      [
        "kindness",
        -10.518921946254231
      ],
      [
        "Ġtower",
        -10.519313327198091
      ],
      [
        "Ġmid",
        -10.519682876255311
      ],
      [
        "Ġinstallation",
        -10.520046333329162
      ],
      [
        "Ġsurvival",
        -10.520529575729764
      ],
      [
        "kingdom",
        -10.52080023356162
      ],
      [
        "Ġcomplexity",
        -10.521047741790982
      ],
      [
        "text",
        -10.52145502852765
      ],
      [
        "Ġpick",
        -10.521831947374528
      ],
      [
        "Ġentertainment",
        -10.52271230009438
      ],
      [
        "jason",
        -10.522937520506426
      ],
      [
        "Ġappeal",
        -10.523817596717992
      ],
      [
        "mixing",
        -10.52402781465401
      ],
      [
        "Ġconsole",
        -10.524161908342949
      ],
      [
        "Ġnetworks",
        -10.525203367697824
      ],
      [
        "Ġremaining",
        -10.525338845626234
      ],
      [
        "selling",
        -10.526040506641534
      ],
      [
        "aside",
        -10.526259996008106
      ],
      [
        "fraid",
        -10.52668745501322
      ],
      [
        "à¤¯",
        -10.52700350711735
      ],
      [
        "Ġnewfound",
        -10.527209925888874
      ],
      [
        "Ġsnow",
        -10.52795457904507
      ],
      [
        "Ġgrill",
        -10.528322243927434
      ],
      [
        "storytelling",
        -10.528656884161393
      ],
      [
        "Ġroman",
        -10.528872395105484
      ],
      [
        "Ġwire",
        -10.529460260717554
      ],
      [
        "Ġannual",
        -10.529662590137352
      ],
      [
        "Ġrelief",
        -10.53015557424474
      ],
      [
        "Ġorganize",
        -10.53070251310038
      ],
      [
        "Ġfurniture",
        -10.531031711942218
      ],
      [
        "ĠâĢĺ",
        -10.531412928508782
      ],
      [
        "Ġtradition",
        -10.531730900124913
      ],
      [
        "Ġchoices",
        -10.531764160782329
      ],
      [
        "50",
        -10.532019088669625
      ],
      [
        "0637",
        -10.532541023749758
      ],
      [
        "Ġdecide",
        -10.53305759394152
      ],
      [
        "Ġaccept",
        -10.533281465387592
      ],
      [
        "Ġwriter",
        -10.53351899894449
      ],
      [
        "Ġpeaceful",
        -10.533533687723631
      ],
      [
        "Ġwild",
        -10.533834113514104
      ],
      [
        "upcoming",
        -10.534919060829376
      ],
      [
        "Ġrewards",
        -10.53600174815266
      ],
      [
        "Ġstops",
        -10.536072165328562
      ],
      [
        "à¤°",
        -10.536332058267131
      ],
      [
        "effective",
        -10.536411810688412
      ],
      [
        "interactions",
        -10.53647043052035
      ],
      [
        "efficient",
        -10.536554671424115
      ],
      [
        "age",
        -10.537378179767124
      ],
      [
        "Ġitalian",
        -10.540516904213677
      ],
      [
        "compelling",
        -10.540589696910406
      ],
      [
        "Ġruns",
        -10.542301354242664
      ],
      [
        "Ġindependent",
        -10.54422513783251
      ],
      [
        "happiness",
        -10.544354834407882
      ],
      [
        "Ġsubstitute",
        -10.544527782309132
      ],
      [
        "Ġago",
        -10.54479270131027
      ],
      [
        "powered",
        -10.544885927771142
      ],
      [
        "Ġtall",
        -10.545008059229872
      ],
      [
        "Ġmountains",
        -10.545750119080534
      ],
      [
        "Ġinventory",
        -10.546735517649166
      ],
      [
        "length",
        -10.546773764516416
      ],
      [
        "frequently",
        -10.546790721532822
      ],
      [
        "Ġsight",
        -10.547048863667802
      ],
      [
        "Ġcouncil",
        -10.54758527645546
      ],
      [
        "memorable",
        -10.548240896736475
      ],
      [
        "keeping",
        -10.548606193998058
      ],
      [
        "add",
        -10.5488682189386
      ],
      [
        "Ġfrequency",
        -10.549530388588142
      ],
      [
        "Ġwriters",
        -10.550920120820171
      ],
      [
        "way",
        -10.551074851579932
      ],
      [
        "Ġcontributions",
        -10.55133406458441
      ],
      [
        "Ġinterview",
        -10.551530177937906
      ],
      [
        "Ġwindow",
        -10.552858600334174
      ],
      [
        "Ġprocedure",
        -10.552928100220583
      ],
      [
        "Ġdrug",
        -10.552977822368836
      ],
      [
        "Ġlose",
        -10.553075207728735
      ],
      [
        "Ġresponsibility",
        -10.553308906716891
      ],
      [
        "title",
        -10.55351219951178
      ],
      [
        "Ġapplied",
        -10.553656877605375
      ],
      [
        "showed",
        -10.55368576789661
      ],
      [
        "Ġmassive",
        -10.55392474409855
      ],
      [
        "Ġrandom",
        -10.554882955947182
      ],
      [
        "Ġtend",
        -10.555086915766992
      ],
      [
        "Ġsharp",
        -10.556802220332491
      ],
      [
        "Ġopened",
        -10.557035418349852
      ],
      [
        "Ġmarine",
        -10.557645701576137
      ],
      [
        "Ġillustrate",
        -10.557790743800474
      ],
      [
        "principles",
        -10.557912717085609
      ],
      [
        "experts",
        -10.557922291555911
      ],
      [
        "Ġvalid",
        -10.55883046776029
      ],
      [
        "Ġscale",
        -10.559908880252117
      ],
      [
        "high",
        -10.56015828064332
      ],
      [
        "Ġprime",
        -10.561568514014438
      ],
      [
        "Ġsoldier",
        -10.56210118144306
      ],
      [
        "Ġarms",
        -10.562237487836654
      ],
      [
        "Ġdirector",
        -10.562545593009432
      ],
      [
        "2015",
        -10.562728937307783
      ],
      [
        "Ġmoved",
        -10.5628267066564
      ],
      [
        "Ġdegree",
        -10.563998794947272
      ],
      [
        "Ġ40",
        -10.564238146504144
      ],
      [
        "Ġpredict",
        -10.5643410651289
      ],
      [
        "Ġlake",
        -10.565303333058573
      ],
      [
        "civilization",
        -10.56595459247837
      ],
      [
        "Ġindex",
        -10.566452257820185
      ],
      [
        "Ġproposal",
        -10.566786761452732
      ],
      [
        "resonate",
        -10.5687705066878
      ],
      [
        "Ġalert",
        -10.568875251812443
      ],
      [
        "Ġdecade",
        -10.569179317953148
      ],
      [
        "Ġexploration",
        -10.570339965764106
      ],
      [
        "Ġdress",
        -10.570512511255824
      ],
      [
        "Ġiron",
        -10.5705500129181
      ],
      [
        "Ġtoppings",
        -10.570621162947443
      ],
      [
        "Ġarticles",
        -10.570840960067116
      ],
      [
        "Ġdepict",
        -10.57167021737279
      ],
      [
        "Ġdemographic",
        -10.5725973774216
      ],
      [
        "Ġindicate",
        -10.572808137465698
      ],
      [
        "Ġbad",
        -10.573022779082727
      ],
      [
        "Ġworldwide",
        -10.573181129945324
      ],
      [
        "Ġsavings",
        -10.57327254102022
      ],
      [
        "Ġlay",
        -10.57350632873373
      ],
      [
        "Ġpursue",
        -10.573544408450475
      ],
      [
        "operating",
        -10.575652337689364
      ],
      [
        "098",
        -10.575667877084433
      ],
      [
        "Ġvia",
        -10.57569038255964
      ],
      [
        "seems",
        -10.575932675675286
      ],
      [
        "Ġluxury",
        -10.578246716709469
      ],
      [
        "regions",
        -10.578479574767185
      ],
      [
        "Ġcrops",
        -10.579205537495172
      ],
      [
        "promise",
        -10.579883569305562
      ],
      [
        "Ġcater",
        -10.580386554832634
      ],
      [
        "Ġwestern",
        -10.580865279825863
      ],
      [
        "Ġstreets",
        -10.580876292551254
      ],
      [
        "Ġbaby",
        -10.580904055664725
      ],
      [
        "Ġauthentication",
        -10.582326189778351
      ],
      [
        "Ġcomponent",
        -10.583206826287094
      ],
      [
        "classroom",
        -10.584143279445874
      ],
      [
        "Ġluck",
        -10.584930230433878
      ],
      [
        "Ġassess",
        -10.585931973616434
      ],
      [
        "chickpea",
        -10.58616474490503
      ],
      [
        "Ġtreasure",
        -10.588476817732005
      ],
      [
        "Ġindustrial",
        -10.588925280232036
      ],
      [
        "Ġunion",
        -10.589087589865883
      ],
      [
        "Ġ60",
        -10.590763617130357
      ],
      [
        "intensity",
        -10.59200494352284
      ],
      [
        "Ġlime",
        -10.592177793916727
      ],
      [
        "div",
        -10.59326462834182
      ],
      [
        "Ġbond",
        -10.593400483128937
      ],
      [
        "experienced",
        -10.593590549611845
      ],
      [
        "()`",
        -10.59396833955099
      ],
      [
        "Ġyellow",
        -10.59431777956718
      ],
      [
        "Ġwelcome",
        -10.595105811637753
      ],
      [
        "Ġsimmer",
        -10.595573046485155
      ],
      [
        "Ġnavigation",
        -10.595811023921536
      ],
      [
        "Ġprovider",
        -10.595866670792937
      ],
      [
        "Ġcenturi",
        -10.596261764032542
      ],
      [
        "appreciation",
        -10.59650898908401
      ],
      [
        "Ġframe",
        -10.5970319616689
      ],
      [
        "();\\",
        -10.597960987124171
      ],
      [
        "Ġgone",
        -10.598059311656623
      ],
      [
        "findings",
        -10.598445556171631
      ],
      [
        "Ġmotion",
        -10.59911169193652
      ],
      [
        "Ġcorner",
        -10.599714026073292
      ],
      [
        "flowers",
        -10.600155062545406
      ],
      [
        "institutions",
        -10.600879681612458
      ],
      [
        "aimed",
        -10.601228737150247
      ],
      [
        "appears",
        -10.60172098364369
      ],
      [
        "Ġdavid",
        -10.60190343970791
      ],
      [
        "Ġmanner",
        -10.602841135559943
      ],
      [
        "Ġlabor",
        -10.602874677694226
      ],
      [
        "inspiring",
        -10.603156927751956
      ],
      [
        "employer",
        -10.604145335254696
      ],
      [
        "next",
        -10.604168991369471
      ],
      [
        "Ġclove",
        -10.604542236142668
      ],
      [
        "Ġthreat",
        -10.60481401764543
      ],
      [
        "leverage",
        -10.60487887944204
      ],
      [
        "Ġterm",
        -10.604920373637588
      ],
      [
        "Ġsucceed",
        -10.605301746092806
      ],
      [
        "Ġgenre",
        -10.605470275611248
      ],
      [
        "Ġhighest",
        -10.605601536323936
      ],
      [
        "Ġlesson",
        -10.605704029907184
      ],
      [
        "crispy",
        -10.606375589041468
      ],
      [
        "ngenerate",
        -10.607461337648834
      ],
      [
        "Ġpreheat",
        -10.607638826764896
      ],
      [
        "Ġnutrition",
        -10.607725145280506
      ],
      [
        "Ġrecycling",
        -10.608761635204646
      ],
      [
        "Ġstumble",
        -10.610831035327635
      ],
      [
        "lived",
        -10.610908999851151
      ],
      [
        "Ġcapital",
        -10.61093464947663
      ],
      [
        "Ġaccounts",
        -10.611658809011915
      ],
      [
        "Ġwatche",
        -10.612157612089502
      ],
      [
        "Ġoverview",
        -10.612831443529466
      ],
      [
        "Ġdecrease",
        -10.612981775300458
      ],
      [
        "Ġcomposition",
        -10.613227390728744
      ],
      [
        "Ġmanual",
        -10.613552161579529
      ],
      [
        "Ġseat",
        -10.614428964116854
      ],
      [
        "Ġsent",
        -10.614750491015592
      ],
      [
        "distraction",
        -10.614863130139648
      ],
      [
        "Ġprinting",
        -10.615394100505709
      ],
      [
        "crisis",
        -10.616557941264878
      ],
      [
        "Ġjar",
        -10.61664241976706
      ],
      [
        "Ġsteel",
        -10.616666395719058
      ],
      [
        "vulnerable",
        -10.617029277511955
      ],
      [
        "Ġsolid",
        -10.617509257042409
      ],
      [
        "Ġretail",
        -10.617758617872324
      ],
      [
        "Ġcharge",
        -10.618481370891445
      ],
      [
        "Ġ2016",
        -10.619483266455262
      ],
      [
        "value",
        -10.619543199134364
      ],
      [
        "Ġexperienc",
        -10.620581369919847
      ],
      [
        "tailored",
        -10.620761726219529
      ],
      [
        "immune",
        -10.62106821678639
      ],
      [
        "Ġinstitute",
        -10.621385512035037
      ],
      [
        "Ġromantic",
        -10.622201088157889
      ],
      [
        "Ġginger",
        -10.623544089656328
      ],
      [
        "Ġwave",
        -10.623707597760664
      ],
      [
        "Ġsnacks",
        -10.62422653928301
      ],
      [
        "Ġthousand",
        -10.624419867458052
      ],
      [
        "Ġtech",
        -10.624830371287873
      ],
      [
        "Ġharsh",
        -10.62512044935484
      ],
      [
        "->",
        -10.626926755888682
      ],
      [
        "Ġartificial",
        -10.627403371128285
      ],
      [
        "Ġfoot",
        -10.627952344684912
      ],
      [
        "Ġlayout",
        -10.62867115893949
      ],
      [
        "Ġtimeline",
        -10.628892990850868
      ],
      [
        "Ġcalifornia",
        -10.629373130057797
      ],
      [
        "flavorful",
        -10.62958086483878
      ],
      [
        "Ġobtain",
        -10.6297241039553
      ],
      [
        "action",
        -10.630097599817605
      ],
      [
        "40",
        -10.630307796664072
      ],
      [
        "shaping",
        -10.630853781072863
      ],
      [
        "Ġtalking",
        -10.630924349168668
      ],
      [
        "skilled",
        -10.631815431379668
      ],
      [
        "Ġsell",
        -10.631870116364617
      ],
      [
        "...",
        -10.632102774888471
      ],
      [
        "old",
        -10.63213442414741
      ],
      [
        "Ġinvestor",
        -10.632391622115804
      ],
      [
        "Ġdownload",
        -10.632404063729275
      ],
      [
        "Ġwider",
        -10.632625060509488
      ],
      [
        "providers",
        -10.633105453603395
      ],
      [
        "Ġbags",
        -10.633229502293233
      ],
      [
        "nwhat",
        -10.633295028234484
      ],
      [
        "product",
        -10.63373387987074
      ],
      [
        "Ġfriendship",
        -10.63482648264134
      ],
      [
        "Ġretention",
        -10.636710379646464
      ],
      [
        "presented",
        -10.636838367490856
      ],
      [
        "Ġreminder",
        -10.636875469251478
      ],
      [
        "Ġload",
        -10.63718267282804
      ],
      [
        "Ġguest",
        -10.637410072494507
      ],
      [
        "Ġtrial",
        -10.639333719577373
      ],
      [
        "Ġcards",
        -10.639891108080072
      ],
      [
        "lessons",
        -10.640223983964653
      ],
      [
        "Ġintegrated",
        -10.640535140023708
      ],
      [
        "Ġhttps",
        -10.640615257941134
      ],
      [
        "mushrooms",
        -10.640751357576628
      ],
      [
        "Ġjoint",
        -10.640803789823142
      ],
      [
        "nmy",
        -10.641282278501183
      ],
      [
        "fruits",
        -10.641425069935874
      ],
      [
        "Ġindigenous",
        -10.642056372708955
      ],
      [
        "Ġchest",
        -10.642195720687065
      ],
      [
        "Ġenters",
        -10.642688366052043
      ],
      [
        "Ġroute",
        -10.643344107662372
      ],
      [
        "Ġcovers",
        -10.643617104200551
      ],
      [
        "develop",
        -10.644487717586234
      ],
      [
        "Ġprofound",
        -10.646016625650589
      ],
      [
        "Ġvisualization",
        -10.646514277228004
      ],
      [
        "Ġbridge",
        -10.647155623060588
      ],
      [
        "diseases",
        -10.647491797674174
      ],
      [
        "Ġreferral",
        -10.648671138631162
      ],
      [
        "nthey",
        -10.648722596616537
      ],
      [
        "vehicle",
        -10.649443171322988
      ],
      [
        "Ġenjoye",
        -10.650538797756628
      ],
      [
        "Ġmiles",
        -10.6507652726183
      ],
      [
        "].\"}",
        -10.652069775351356
      ],
      [
        "Ġpercentage",
        -10.652078852142424
      ],
      [
        "nwhile",
        -10.653006953758211
      ],
      [
        "Ġhonor",
        -10.6535860798159
      ],
      [
        "Ġfacilitate",
        -10.65408415977342
      ],
      [
        "ncut",
        -10.654533281167938
      ],
      [
        "Ġexclusive",
        -10.655901891602726
      ],
      [
        "Ġimplication",
        -10.6560320044474
      ],
      [
        "Ġfan",
        -10.656115873057244
      ],
      [
        "instruction",
        -10.656971215499986
      ],
      [
        "Ġseamless",
        -10.657049513976515
      ],
      [
        "Ġleague",
        -10.657672429482236
      ],
      [
        "77",
        -10.65806983712039
      ],
      [
        "Ġreaction",
        -10.658608059635576
      ],
      [
        "trained",
        -10.659066112360795
      ],
      [
        "Ġbanana",
        -10.65933357015331
      ],
      [
        "Ġinvestigation",
        -10.659464882383794
      ],
      [
        "Ġunits",
        -10.659734591161552
      ],
      [
        "Ġrhythm",
        -10.660211944708267
      ],
      [
        "Ġcontract",
        -10.660336397277984
      ],
      [
        "measuring",
        -10.66036483751652
      ],
      [
        "Ġassessment",
        -10.661001228348438
      ],
      [
        "Ġcraft",
        -10.662775257244109
      ],
      [
        "2020",
        -10.662778990879362
      ],
      [
        "Ġ500",
        -10.663535802370726
      ],
      [
        "Ġliquid",
        -10.663720674857943
      ],
      [
        "Ġstrengthen",
        -10.663935297999435
      ],
      [
        "Ġbus",
        -10.6646188374749
      ],
      [
        "Ġartistic",
        -10.664871937573194
      ],
      [
        "Ġlinks",
        -10.665639142067182
      ],
      [
        "haps",
        -10.665764168227726
      ],
      [
        "Ġgaine",
        -10.666151900421472
      ],
      [
        "apartment",
        -10.667249432112682
      ],
      [
        "water",
        -10.667373745782124
      ],
      [
        "Ġseafood",
        -10.668280593488408
      ],
      [
        "Ġà¤¸",
        -10.668398323789877
      ],
      [
        "Ġcrop",
        -10.668617463501398
      ],
      [
        "jewelry",
        -10.66904081551277
      ],
      [
        "nonce",
        -10.669721807429616
      ],
      [
        "Ġsensation",
        -10.66985686682915
      ],
      [
        "Ġprior",
        -10.670110394239376
      ],
      [
        "Ġresponsive",
        -10.670287854351423
      ],
      [
        "\\\")\\",
        -10.67245757162832
      ],
      [
        "off",
        -10.673555007371386
      ],
      [
        "Ġmention",
        -10.674078373608827
      ],
      [
        "Ġsevere",
        -10.674948724946574
      ],
      [
        "Ġreflection",
        -10.675676033285823
      ],
      [
        "Ġextreme",
        -10.675683828986346
      ],
      [
        "Ġmedication",
        -10.676083874439598
      ],
      [
        "Ġannounce",
        -10.676193171138303
      ],
      [
        "Ġmissing",
        -10.676517346549227
      ],
      [
        "Ġtravels",
        -10.676554618896777
      ],
      [
        "Ġhealing",
        -10.676599145009154
      ],
      [
        "launched",
        -10.677687735621564
      ],
      [
        "Ġhurt",
        -10.6778994072201
      ],
      [
        "teaches",
        -10.678971470848156
      ],
      [
        "Ġwedding",
        -10.679233070136252
      ],
      [
        "Ġisolation",
        -10.679471863248358
      ],
      [
        "Ġbed",
        -10.680214211873352
      ],
      [
        "Ġaesthetic",
        -10.680623370383246
      ],
      [
        "Ġglad",
        -10.68246962498242
      ],
      [
        "Ġpack",
        -10.68247972902889
      ],
      [
        "customized",
        -10.682484193041986
      ],
      [
        "rising",
        -10.682734897297802
      ],
      [
        "Ġnice",
        -10.682874005276544
      ],
      [
        "Ġclassical",
        -10.682927094486285
      ],
      [
        "proposed",
        -10.682946236843012
      ],
      [
        "Ġwealth",
        -10.68301500423681
      ],
      [
        "musicians",
        -10.683355163876712
      ],
      [
        "Ġmichael",
        -10.68364850406054
      ],
      [
        "equality",
        -10.68436020196453
      ],
      [
        "Ġspoke",
        -10.684739785225853
      ],
      [
        "Ġfalls",
        -10.686355498604671
      ],
      [
        "Ġvan",
        -10.68764152548069
      ],
      [
        "responsibilities",
        -10.68790316709087
      ],
      [
        "weakness",
        -10.688028085870402
      ],
      [
        "Ġwhispers",
        -10.689017403793684
      ],
      [
        "Ġsupportive",
        -10.689036844937029
      ],
      [
        "Ġlights",
        -10.690667727284453
      ],
      [
        "Ġagricultural",
        -10.691008725544364
      ],
      [
        "ended",
        -10.69106996335599
      ],
      [
        "cucumber",
        -10.691117637299506
      ],
      [
        "evolved",
        -10.691119411483534
      ],
      [
        "Ġtransformation",
        -10.69129746345804
      ],
      [
        "Ġexternal",
        -10.691977026618394
      ],
      [
        "Ġoperation",
        -10.694179555011033
      ],
      [
        "aims",
        -10.694370221506666
      ],
      [
        "Ġnoodle",
        -10.695468455182407
      ],
      [
        "detective",
        -10.69619964552389
      ],
      [
        "adults",
        -10.696225322972309
      ],
      [
        "Ġleg",
        -10.696271713137245
      ],
      [
        "shaped",
        -10.696940697925218
      ],
      [
        "Ġiconic",
        -10.697468395018117
      ],
      [
        "Ġhistoric",
        -10.6983347071254
      ],
      [
        "Ġbay",
        -10.699196545818753
      ],
      [
        "performing",
        -10.699663078633712
      ],
      [
        "Ġcoat",
        -10.6996650693424
      ],
      [
        "Ġcenters",
        -10.699675047450404
      ],
      [
        "differences",
        -10.699740140068904
      ],
      [
        "employment",
        -10.70016561709516
      ],
      [
        "Ġfalse",
        -10.700477176505157
      ],
      [
        "key",
        -10.701444505148476
      ],
      [
        "Ġbasil",
        -10.701867728946926
      ],
      [
        "Ġfootball",
        -10.701964861072934
      ],
      [
        "guided",
        -10.702113305826336
      ],
      [
        "Ġlondon",
        -10.702244849786256
      ],
      [
        "()\\",
        -10.703656293168644
      ],
      [
        "Ġvisibility",
        -10.704237925926074
      ],
      [
        "designers",
        -10.705725548625937
      ],
      [
        "Ġmetaphor",
        -10.705949041952763
      ],
      [
        "Ġshake",
        -10.70696653306098
      ],
      [
        "meant",
        -10.7079095731229
      ],
      [
        "Ġlanguages",
        -10.70796485371492
      ],
      [
        "color",
        -10.707970258991452
      ],
      [
        "Ġexecutive",
        -10.708684800810898
      ],
      [
        "Ġcrime",
        -10.709521359111374
      ],
      [
        "Ġsyrup",
        -10.711010274517086
      ],
      [
        "Ġstretch",
        -10.711155078107604
      ],
      [
        "deeply",
        -10.711640441452246
      ],
      [
        "mystery",
        -10.712601206480969
      ],
      [
        "Ġjazz",
        -10.713551087756512
      ],
      [
        "Ġsequence",
        -10.713724641263804
      ],
      [
        "node",
        -10.71375283898932
      ],
      [
        "Ġprofit",
        -10.714037486925015
      ],
      [
        "Ġshall",
        -10.71404251871773
      ],
      [
        "\\\");\\",
        -10.714282191224322
      ],
      [
        "Ġthrow",
        -10.714468242401704
      ],
      [
        "Ġfarm",
        -10.717140449166294
      ],
      [
        "Ġproud",
        -10.719136102712058
      ],
      [
        "Ġclothes",
        -10.719223501462745
      ],
      [
        "Ġasia",
        -10.719873781454137
      ],
      [
        "Ġsculpture",
        -10.720618927024413
      ],
      [
        "Ġowners",
        -10.720712561315253
      ],
      [
        "released",
        -10.720787116602237
      ],
      [
        "38",
        -10.720891754479362
      ],
      [
        "Ġemphasis",
        -10.720993187973358
      ],
      [
        "her",
        -10.72199804047374
      ],
      [
        "Ġfrance",
        -10.722243453261044
      ],
      [
        "Ġlaws",
        -10.72246207260897
      ],
      [
        "literary",
        -10.723459461337812
      ],
      [
        "Ġpork",
        -10.72351232456735
      ],
      [
        "Ġconsist",
        -10.723547459467754
      ],
      [
        "2014",
        -10.72371757387338
      ],
      [
        "Ġdiscovery",
        -10.723748179163987
      ],
      [
        "Ġeveryday",
        -10.724359857551356
      ],
      [
        "healthier",
        -10.725049084478174
      ],
      [
        "such",
        -10.725593168622114
      ],
      [
        "injury",
        -10.7260662763108
      ],
      [
        "Ġmovies",
        -10.72639734988216
      ],
      [
        "Ġdust",
        -10.726571916645629
      ],
      [
        "à¥ĩ",
        -10.72689125730728
      ],
      [
        "Ġsub",
        -10.727267170470082
      ],
      [
        "gaming",
        -10.727812705386826
      ],
      [
        "Ġsearching",
        -10.72852108006864
      ],
      [
        "Ġcharacteristic",
        -10.729145192231366
      ],
      [
        "Ġvitamin",
        -10.729416656992548
      ],
      [
        "Ġrecords",
        -10.73062496445448
      ],
      [
        "incredibly",
        -10.731129325480383
      ],
      [
        "supporting",
        -10.731663780802457
      ],
      [
        "Ġbeer",
        -10.731872299404383
      ],
      [
        "Ġshadows",
        -10.733206951922094
      ],
      [
        "movements",
        -10.733513374287032
      ],
      [
        "Ġnutritional",
        -10.733679203106146
      ],
      [
        "Ġfaith",
        -10.734324848427793
      ],
      [
        "Ġreact",
        -10.734388808791117
      ],
      [
        "Ġunknown",
        -10.73458836830503
      ],
      [
        "Ġbottle",
        -10.73484431111493
      ],
      [
        "Ġtrauma",
        -10.735864173567494
      ],
      [
        "finished",
        -10.735871493162534
      ],
      [
        "Ġexamine",
        -10.736330126195902
      ],
      [
        "athletes",
        -10.736556824681616
      ],
      [
        "Ġcollaborative",
        -10.736945531899892
      ],
      [
        "Ġshoes",
        -10.737402709513884
      ],
      [
        "Ġpuzzle",
        -10.737423141931
      ],
      [
        "Ġsamantha",
        -10.737518815620309
      ],
      [
        "Ġcopy",
        -10.73778366093426
      ],
      [
        "remained",
        -10.737805311987763
      ],
      [
        "biggest",
        -10.738088865828352
      ],
      [
        "selecting",
        -10.738260782874775
      ],
      [
        "ĠĠĠĠĠĠĠĠĠĠĠĠĠĠĠĠ",
        -10.73854811488779
      ],
      [
        "Ġminimum",
        -10.739634766558384
      ],
      [
        "dedication",
        -10.740176841747587
      ],
      [
        "sunlight",
        -10.740892746263736
      ],
      [
        "80",
        -10.741587217397296
      ],
      [
        "Ġestate",
        -10.742101899455545
      ],
      [
        "Ġsenior",
        -10.742672698824643
      ],
      [
        "Ġelaborate",
        -10.7429781469029
      ],
      [
        "2013",
        -10.7430245258857
      ],
      [
        "Ġadaptation",
        -10.74321224065258
      ],
      [
        "Ġthanks",
        -10.744141030047418
      ],
      [
        "Ġoptimal",
        -10.744259603280527
      ],
      [
        "scale",
        -10.744631397808972
      ],
      [
        "Ġarmy",
        -10.744793586487235
      ],
      [
        "traveler",
        -10.745354249929749
      ],
      [
        "beneficial",
        -10.74542915264352
      ],
      [
        "Ġcircle",
        -10.745485136871247
      ],
      [
        "Ġgenetic",
        -10.746004837195516
      ],
      [
        "192",
        -10.746292243000282
      ],
      [
        "nervous",
        -10.746334960040388
      ],
      [
        "Ġpasso",
        -10.7466223886023
      ],
      [
        "smiling",
        -10.74664616687679
      ],
      [
        "ng",
        -10.747212559128767
      ],
      [
        "Ġdie",
        -10.747371036321194
      ],
      [
        "approximately",
        -10.747944074563035
      ],
      [
        "prices",
        -10.750080021609598
      ],
      [
        "computing",
        -10.750182684743804
      ],
      [
        "\\\";\\",
        -10.75037211944202
      ],
      [
        "Ġfrozen",
        -10.750381483381986
      ],
      [
        "Ġsensitive",
        -10.750920515146616
      ],
      [
        "Ġaustralia",
        -10.751438866033435
      ],
      [
        "narrator",
        -10.751629970658344
      ],
      [
        "boundaries",
        -10.753425147813164
      ],
      [
        "0646",
        -10.753512452942214
      ],
      [
        "Ġexhibit",
        -10.75413747689625
      ],
      [
        "Ġexit",
        -10.754636190277903
      ],
      [
        "Ġdietary",
        -10.75469741460924
      ],
      [
        "Ġvalley",
        -10.754739632735893
      ],
      [
        "company",
        -10.75474370494948
      ],
      [
        "formed",
        -10.756360825220789
      ],
      [
        "Ġbars",
        -10.756654531480962
      ],
      [
        "Ġshowing",
        -10.756931385788327
      ],
      [
        "Ġarise",
        -10.757173209196967
      ],
      [
        "nthrough",
        -10.757260003635407
      ],
      [
        "Ġprize",
        -10.75773638639118
      ],
      [
        "Ġfederal",
        -10.757947612734752
      ],
      [
        "Ġchannel",
        -10.758575576764478
      ],
      [
        "Ġpeanut",
        -10.75874689721765
      ],
      [
        "Ġunit",
        -10.760085927205852
      ],
      [
        "Ġbreaking",
        -10.760493937292196
      ],
      [
        "Ġenabl",
        -10.76061839910895
      ],
      [
        "Ġcrew",
        -10.760621787546858
      ],
      [
        "nimport",
        -10.760706931816236
      ],
      [
        "Ġlinked",
        -10.760717674925226
      ],
      [
        "Ġperforme",
        -10.761482366775487
      ],
      [
        "Ġlentil",
        -10.761977267096904
      ],
      [
        "arsley",
        -10.762208141581514
      ],
      [
        "Ġrare",
        -10.762449391883884
      ],
      [
        "Ġmary",
        -10.76257248051675
      ],
      [
        "Ġshoulder",
        -10.76285142893065
      ],
      [
        "Ġdip",
        -10.762858398267056
      ],
      [
        "Ġpro",
        -10.763123761258305
      ],
      [
        "bodies",
        -10.764649903358755
      ],
      [
        "image",
        -10.764738248912495
      ],
      [
        "304",
        -10.76538661378943
      ],
      [
        "Ġphase",
        -10.765594959496095
      ],
      [
        "cumin",
        -10.766280953878336
      ],
      [
        "Ġteach",
        -10.766729042837042
      ],
      [
        "nquestion",
        -10.767380832263648
      ],
      [
        "Ġfrequent",
        -10.767495157827918
      ],
      [
        "500",
        -10.767769810044353
      ],
      [
        "Ġraw",
        -10.769113133664996
      ],
      [
        "Ġformal",
        -10.769418163989714
      ],
      [
        "Ġship",
        -10.76997515503422
      ],
      [
        "Ġsells",
        -10.77005768161188
      ],
      [
        "Ġunlike",
        -10.770369272458463
      ],
      [
        "Ġhuge",
        -10.771166244867183
      ],
      [
        "unable",
        -10.771219908231906
      ],
      [
        "jake",
        -10.771805568169125
      ],
      [
        "Ġprivacy",
        -10.77217933228572
      ],
      [
        "Ġcarrie",
        -10.772233752939943
      ],
      [
        "Ġcourage",
        -10.772738539415682
      ],
      [
        "Ġstraight",
        -10.77306519332628
      ],
      [
        "surprise",
        -10.77346585243836
      ],
      [
        "fighting",
[...]
